unsigned char model_data[] = {0x1c, 0x00, 0x00, 0x00, 0x54, 0x46, 0x4c, 0x33, 0x14, 0x00, 0x20, 0x00, 0x1c, 0x00, 0x18, 0x00, 0x14, 0x00, 0x10, 0x00, 0x0c, 0x00, 0x00, 0x00, 0x08, 0x00, 0x04, 0x00, 0x14, 0x00, 0x00, 0x00, 0x1c, 0x00, 0x00, 0x00, 0x88, 0x00, 0x00, 0x00, 0xe0, 0x00, 0x00, 0x00, 0x4c, 0x05, 0x00, 0x00, 0x5c, 0x05, 0x00, 0x00, 0xe0, 0x0a, 0x00, 0x00, 0x03, 0x00, 0x00, 0x00, 0x01, 0x00, 0x00, 0x00, 0x04, 0x00, 0x00, 0x00, 0x66, 0xfa, 0xff, 0xff, 0x0c, 0x00, 0x00, 0x00, 0x1c, 0x00, 0x00, 0x00, 0x3c, 0x00, 0x00, 0x00, 0x0f, 0x00, 0x00, 0x00, 0x73, 0x65, 0x72, 0x76, 0x69, 0x6e, 0x67, 0x5f, 0x64, 0x65, 0x66, 0x61, 0x75, 0x6c, 0x74, 0x00, 0x01, 0x00, 0x00, 0x00, 0x04, 0x00, 0x00, 0x00, 0x94, 0xff, 0xff, 0xff, 0x0a, 0x00, 0x00, 0x00, 0x04, 0x00, 0x00, 0x00, 0x08, 0x00, 0x00, 0x00, 0x6f, 0x75, 0x74, 0x70, 0x75, 0x74, 0x5f, 0x30, 0x00, 0x00, 0x00, 0x00, 0x01, 0x00, 0x00, 0x00, 0x04, 0x00, 0x00, 0x00, 0x56, 0xfb, 0xff, 0xff, 0x04, 0x00, 0x00, 0x00, 0x0b, 0x00, 0x00, 0x00, 0x69, 0x6e, 0x70, 0x75, 0x74, 0x5f, 0x6c, 0x61, 0x79, 0x65, 0x72, 0x00, 0x02, 0x00, 0x00, 0x00, 0x34, 0x00, 0x00, 0x00, 0x04, 0x00, 0x00, 0x00, 0xdc, 0xff, 0xff, 0xff, 0x0d, 0x00, 0x00, 0x00, 0x04, 0x00, 0x00, 0x00, 0x13, 0x00, 0x00, 0x00, 0x43, 0x4f, 0x4e, 0x56, 0x45, 0x52, 0x53, 0x49, 0x4f, 0x4e, 0x5f, 0x4d, 0x45, 0x54, 0x41, 0x44, 0x41, 0x54, 0x41, 0x00, 0x08, 0x00, 0x0c, 0x00, 0x08, 0x00, 0x04, 0x00, 0x08, 0x00, 0x00, 0x00, 0x0c, 0x00, 0x00, 0x00, 0x04, 0x00, 0x00, 0x00, 0x13, 0x00, 0x00, 0x00, 0x6d, 0x69, 0x6e, 0x5f, 0x72, 0x75, 0x6e, 0x74, 0x69, 0x6d, 0x65, 0x5f, 0x76, 0x65, 0x72, 0x73, 0x69, 0x6f, 0x6e, 0x00, 0x0e, 0x00, 0x00, 0x00, 0x68, 0x04, 0x00, 0x00, 0x60, 0x04, 0x00, 0x00, 0x30, 0x04, 0x00, 0x00, 0x18, 0x02, 0x00, 0x00, 0x04, 0x02, 0x00, 0x00, 0xd4, 0x01, 0x00, 0x00, 0x84, 0x01, 0x00, 0x00, 0xb4, 0x00, 0x00, 0x00, 0xac, 0x00, 0x00, 0x00, 0xa4, 0x00, 0x00, 0x00, 0x9c, 0x00, 0x00, 0x00, 0x94, 0x00, 0x00, 0x00, 0x74, 0x00, 0x00, 0x00, 0x04, 0x00, 0x00, 0x00, 0x06, 0xfc, 0xff, 0xff, 0x04, 0x00, 0x00, 0x00, 0x60, 0x00, 0x00, 0x00, 0x0c, 0x00, 0x00, 0x00, 0x08, 0x00, 0x0e, 0x00, 0x08, 0x00, 0x04, 0x00, 0x08, 0x00, 0x00, 0x00, 0x10, 0x00, 0x00, 0x00, 0x28, 0x00, 0x00, 0x00, 0x00, 0x00, 0x06, 0x00, 0x08, 0x00, 0x04, 0x00, 0x06, 0x00, 0x00, 0x00, 0x04, 0x00, 0x00, 0x00, 0x01, 0x00, 0x00, 0x00, 0xea, 0x03, 0x00, 0x00, 0x0c, 0x00, 0x18, 0x00, 0x14, 0x00, 0x10, 0x00, 0x0c, 0x00, 0x04, 0x00, 0x0c, 0x00, 0x00, 0x00, 0x81, 0x33, 0xce, 0x96, 0x25, 0xd6, 0xa9, 0x06, 0x02, 0x00, 0x00, 0x00, 0x02, 0x00, 0x00, 0x00, 0x04, 0x00, 0x00, 0x00, 0x06, 0x00, 0x00, 0x00, 0x32, 0x2e, 0x31, 0x37, 0x2e, 0x30, 0x00, 0x00, 0x72, 0xfc, 0xff, 0xff, 0x04, 0x00, 0x00, 0x00, 0x10, 0x00, 0x00, 0x00, 0x31, 0x2e, 0x31, 0x34, 0x2e, 0x30, 0x00, 0x00, 0x00, 0x00, 0x00, 0x00, 0x00, 0x00, 0x00, 0x00, 0xf0, 0xf6, 0xff, 0xff, 0xf4, 0xf6, 0xff, 0xff, 0xf8, 0xf6, 0xff, 0xff, 0xfc, 0xf6, 0xff, 0xff, 0x9e, 0xfc, 0xff, 0xff, 0x04, 0x00, 0x00, 0x00, 0xc0, 0x00, 0x00, 0x00, 0x23, 0xec, 0x0a, 0xbf, 0x6f, 0x61, 0x84, 0x3e, 0xae, 0x82, 0xa9, 0x3e, 0x00, 0x46, 0x77, 0xbd, 0xe0, 0x9d, 0x1a, 0xbd, 0xc9, 0x53, 0x0a, 0x3f, 0x20, 0xaa, 0xd6, 0xbc, 0x55, 0x0f, 0x91, 0xbe, 0xc4, 0xfe, 0x86, 0x3e, 0x96, 0x05, 0x6b, 0x3e, 0xed, 0xbf, 0x9a, 0x3e, 0xca, 0xb6, 0x0f, 0xbe, 0x98, 0xcc, 0x86, 0xbd, 0x07, 0x30, 0xd6, 0xbe, 0x10, 0xcc, 0x6f, 0x3e, 0x3f, 0x47, 0x48, 0x3e, 0xbb, 0xeb, 0x50, 0xbd, 0x34, 0x5d, 0x74, 0x3e, 0x7c, 0x60, 0xee, 0xbe, 0x7c, 0xdd, 0x09, 0xbf, 0x30, 0xd7, 0x09, 0x3d, 0x9d, 0x51, 0x92, 0xbe, 0xa2, 0x11, 0x75, 0xbe, 0xe0, 0x0f, 0x1f, 0x3d, 0xcb, 0xe4, 0xd4, 0x3e, 0xd4, 0x9b, 0xa1, 0xbc, 0x38, 0xb1, 0x74, 0xbe, 0x50, 0x61, 0x47, 0xbe, 0xcb, 0x5c, 0x01, 0xbf, 0xc0, 0xb4, 0x31, 0x3d, 0x28, 0x85, 0x6f, 0xbe, 0xe1, 0x98, 0xc5, 0x3d, 0x02, 0x00, 0x31, 0xbe, 0xc8, 0x1a, 0x3a, 0xbe, 0xd6, 0x82, 0xa7, 0x3e, 0xc0, 0x7c, 0x90, 0xbe, 0xbd, 0x7e, 0x88, 0x3e, 0xf1, 0x81, 0x67, 0x3e, 0x0e, 0x5b, 0xd2, 0xbe, 0x03, 0x36, 0xe7, 0x3e, 0x34, 0x73, 0xe5, 0x3e, 0xee, 0x1c, 0x89, 0x3e, 0x39, 0xd6, 0xfb, 0x3e, 0xef, 0x34, 0xf3, 0xbe, 0xe4, 0x4a, 0x04, 0xbf, 0xf9, 0x34, 0x2a, 0xbe, 0xac, 0x21, 0xf9, 0x3e, 0x8c, 0x9b, 0x57, 0x3e, 0x6a, 0xfd, 0xff, 0xff, 0x04, 0x00, 0x00, 0x00, 0x40, 0x00, 0x00, 0x00, 0x31, 0x6a, 0x1d, 0xbd, 0x00, 0x00, 0x00, 0x00, 0x00, 0x00, 0x00, 0x00, 0x2a, 0xbd, 0x1d, 0x3d, 0x00, 0x00, 0x00, 0x00, 0x5d, 0xeb, 0x15, 0x3d, 0x00, 0x00, 0x00, 0x00, 0x00, 0x00, 0x00, 0x00, 0xb8, 0x41, 0x14, 0x3d, 0x00, 0x00, 0x00, 0x00, 0x32, 0x70, 0x09, 0xbd, 0x59, 0x02, 0x11, 0xbd, 0xd1, 0x74, 0x14, 0x3d, 0x9c, 0x2c, 0x0f, 0xbd, 0xb0, 0x1b, 0xda, 0x3c, 0x5a, 0x14, 0x0f, 0xbd, 0xb6, 0xfd, 0xff, 0xff, 0x04, 0x00, 0x00, 0x00, 0x20, 0x00, 0x00, 0x00, 0xc3, 0xac, 0x11, 0xbd, 0xa7, 0x92, 0x13, 0x3d, 0x00, 0x00, 0x00, 0x00, 0x00, 0x00, 0x00, 0x00, 0x00, 0x00, 0x00, 0x00, 0x00, 0x00, 0x00, 0x00, 0x00, 0x00, 0x00, 0x00, 0x00, 0x00, 0x00, 0x00, 0xe2, 0xfd, 0xff, 0xff, 0x04, 0x00, 0x00, 0x00, 0x04, 0x00, 0x00, 0x00, 0x50, 0x8b, 0x12, 0x3d, 0xf2, 0xfd, 0xff, 0xff, 0x04, 0x00, 0x00, 0x00, 0x00, 0x02, 0x00, 0x00, 0x42, 0xcc, 0xbb, 0xbe, 0xd8, 0xd3, 0xac, 0xbe, 0x00, 0x01, 0x37, 0x3c, 0xd9, 0xea, 0x7b, 0x3e, 0x40, 0x3d, 0xcb, 0xbc, 0x2e, 0xcb, 0x46, 0xbe, 0x48, 0xbd, 0xf8, 0x3e, 0xcc, 0xa0, 0xd6, 0x3e, 0xdf, 0x95, 0xfc, 0xbe, 0x38, 0x1b, 0x93, 0xbe, 0x17, 0xd2, 0xbc, 0xbe, 0x37, 0x72, 0xaf, 0x3e, 0x09, 0x8d, 0xd0, 0xbe, 0xee, 0x17, 0xeb, 0x3e, 0x8c, 0x4e, 0xce, 0xbe, 0xb4, 0x74, 0x95, 0x3e, 0x56, 0xb1, 0x53, 0x3e, 0xc0, 0xd4, 0xcf, 0x3c, 0xfc, 0xad, 0xd5, 0xbe, 0x8d, 0x4a, 0x06, 0x3f, 0xd0, 0xd3, 0x22, 0x3e, 0xd8, 0x95, 0xb1, 0x3e, 0x14, 0xc3, 0xd2, 0x3e, 0x74, 0x92, 0xf4, 0xbe, 0x5e, 0x6b, 0x7b, 0x3e, 0x60, 0x87, 0x72, 0x3e, 0x8d, 0x6a, 0xd3, 0x3e, 0x46, 0xe5, 0xe2, 0xbe, 0x5c, 0xc0, 0xc6, 0x3e, 0x8c, 0x51, 0xe3, 0xbb, 0xfe, 0xe4, 0xfc, 0xbd, 0xa3, 0xc5, 0xd1, 0xbd, 0x80, 0x58, 0x80, 0x3c, 0xc8, 0x52, 0x65, 0xbe, 0x00, 0x1b, 0xbc, 0x3d, 0x74, 0x27, 0x99, 0x3e, 0x6c, 0x2f, 0x89, 0xbe, 0xc8, 0xa3, 0xc1, 0xbe, 0x14, 0xf8, 0xe1, 0xbe, 0xc8, 0xbb, 0x14, 0x3e, 0xc0, 0x51, 0x77, 0xbe, 0x00, 0x82, 0xa3, 0x3b, 0x20, 0xbc, 0x77, 0xbd, 0x30, 0xba, 0xe4, 0x3e, 0x98, 0x65, 0x70, 0xbe, 0x80, 0x42, 0x93, 0x3c, 0xf4, 0x6a, 0xae, 0xbe, 0x4c, 0x48, 0xf0, 0xbe, 0x04, 0x41, 0xd3, 0x3e, 0x40, 0x6a, 0x64, 0xbe, 0x88, 0xf8, 0x01, 0x3e, 0xd8, 0x94, 0x01, 0xbe, 0xb8, 0x9e, 0x70, 0xbe, 0x0c, 0xad, 0xf1, 0x3e, 0x48, 0x27, 0xa0, 0xbe, 0x64, 0xbf, 0xb6, 0xbe, 0x08, 0xfa, 0xaf, 0xbe, 0x88, 0x6f, 0xf5, 0xbe, 0x40, 0x6f, 0x09, 0xbd, 0x90, 0x50, 0x86, 0xbd, 0x38, 0x5f, 0x6c, 0xbe, 0x94, 0x35, 0xbd, 0xbe, 0x50, 0xa5, 0xd5, 0x3e, 0x20, 0xf8, 0xe6, 0x3e, 0x40, 0x0a, 0x54, 0x3e, 0x24, 0xad, 0xda, 0x3e, 0x60, 0x34, 0xdb, 0xbe, 0xb0, 0x59, 0xae, 0xbd, 0xb0, 0x58, 0x4d, 0xbe, 0xc8, 0xeb, 0x84, 0x3e, 0x80, 0x62, 0x22, 0x3d, 0x50, 0xf3, 0xe7, 0x3d, 0x70, 0x0f, 0xf1, 0x3e, 0xd0, 0xbd, 0x31, 0x3e, 0xa0, 0xa1, 0x85, 0xbe, 0xe8, 0xf0, 0xe7, 0xbe, 0xe0, 0xd1, 0xdf, 0xbe, 0x80, 0x7a, 0x65, 0xbd, 0x10, 0xda, 0x64, 0xbe, 0x98, 0x8c, 0xc2, 0xbe, 0x38, 0xe7, 0x4e, 0x3e, 0x80, 0x63, 0x69, 0x3c, 0xd0, 0xaa, 0xe2, 0xbe, 0x00, 0xd6, 0x01, 0x3b, 0xfc, 0x7a, 0xa6, 0xbe, 0x14, 0xe7, 0x87, 0x3e, 0xb8, 0xf1, 0x9a, 0xbe, 0x50, 0xeb, 0xc9, 0x3e, 0xe4, 0x20, 0x91, 0x3e, 0x90, 0x9b, 0xbf, 0xbd, 0x10, 0xd3, 0x72, 0x3e, 0xc4, 0x5a, 0x89, 0x3e, 0x50, 0x70, 0xd0, 0x3d, 0x84, 0xff, 0xd3, 0xbe, 0x30, 0xa8, 0xec, 0x3d, 0xc8, 0xee, 0xd2, 0xbe, 0x60, 0x51, 0xab, 0x3d, 0xd0, 0x26, 0xcf, 0xbd, 0x70, 0xce, 0x7f, 0xbe, 0xec, 0x90, 0xd4, 0xbe, 0x48, 0x68, 0x5d, 0x3e, 0x58, 0x92, 0x8b, 0x3e, 0x30, 0x22, 0xf3, 0x3e, 0xf8, 0x51, 0x5b, 0xbe, 0xc0, 0x40, 0x99, 0xbd, 0xfc, 0x47, 0xe3, 0x3e, 0x20, 0x7b, 0xba, 0xbe, 0x00, 0xc4, 0x06, 0x3b, 0x80, 0x9c, 0xc0, 0xbd, 0xc8, 0x1a, 0xe9, 0xbe, 0x20, 0x68, 0xea, 0x3e, 0xd0, 0xaa, 0xb9, 0x3d, 0x00, 0x60, 0x26, 0x3e, 0xd8, 0xde, 0x5e, 0xbe, 0xb4, 0x22, 0xec, 0xbe, 0x30, 0xae, 0x9f, 0xbd, 0xb4, 0x10, 0xc2, 0x3e, 0xc0, 0x76, 0xd7, 0x3e, 0xc4, 0xea, 0x81, 0xbe, 0x80, 0x24, 0x74, 0xbe, 0x58, 0x27, 0xa4, 0x3e, 0x00, 0xaa, 0xa0, 0x3c, 0x00, 0x39, 0xc7, 0xbd, 0xb0, 0xd1, 0xf1, 0x3e, 0x08, 0xb5, 0x4b, 0x3e, 0xec, 0x07, 0xbb, 0xbe, 0xe8, 0xd4, 0x61, 0xbe, 0x00, 0x25, 0xb6, 0xbb, 0x00, 0x00, 0x06, 0x00, 0x08, 0x00, 0x04, 0x00, 0x06, 0x00, 0x00, 0x00, 0x04, 0x00, 0x00, 0x00, 0x20, 0x00, 0x00, 0x00, 0x48, 0x6b, 0x43, 0xbf, 0x4f, 0xba, 0x3d, 0x3f, 0x3f, 0x5d, 0x40, 0xbf, 0x90, 0xfe, 0x81, 0x3d, 0x88, 0x93, 0xe5, 0xbd, 0x2f, 0x30, 0x37, 0xbf, 0xfc, 0x80, 0xec, 0x3e, 0xf0, 0x40, 0x4a, 0x3d, 0x94, 0xfa, 0xff, 0xff, 0x98, 0xfa, 0xff, 0xff, 0x0f, 0x00, 0x00, 0x00, 0x4d, 0x4c, 0x49, 0x52, 0x20, 0x43, 0x6f, 0x6e, 0x76, 0x65, 0x72, 0x74, 0x65, 0x64, 0x2e, 0x00, 0x01, 0x00, 0x00, 0x00, 0x14, 0x00, 0x00, 0x00, 0x00, 0x00, 0x0e, 0x00, 0x18, 0x00, 0x14, 0x00, 0x10, 0x00, 0x0c, 0x00, 0x08, 0x00, 0x04, 0x00, 0x0e, 0x00, 0x00, 0x00, 0x14, 0x00, 0x00, 0x00, 0x1c, 0x00, 0x00, 0x00, 0x08, 0x01, 0x00, 0x00, 0x0c, 0x01, 0x00, 0x00, 0x10, 0x01, 0x00, 0x00, 0x04, 0x00, 0x00, 0x00, 0x6d, 0x61, 0x69, 0x6e, 0x00, 0x00, 0x00, 0x00, 0x04, 0x00, 0x00, 0x00, 0xb0, 0x00, 0x00, 0x00, 0x68, 0x00, 0x00, 0x00, 0x34, 0x00, 0x00, 0x00, 0x10, 0x00, 0x00, 0x00, 0x00, 0x00, 0x0a, 0x00, 0x10, 0x00, 0x0c, 0x00, 0x08, 0x00, 0x04, 0x00, 0x0a, 0x00, 0x00, 0x00, 0x0c, 0x00, 0x00, 0x00, 0x10, 0x00, 0x00, 0x00, 0x01, 0x00, 0x00, 0x00, 0x01, 0x00, 0x00, 0x00, 0x0a, 0x00, 0x00, 0x00, 0x01, 0x00, 0x00, 0x00, 0x09, 0x00, 0x00, 0x00, 0x9a, 0xff, 0xff, 0xff, 0x10, 0x00, 0x00, 0x00, 0x00, 0x00, 0x00, 0x08, 0x0c, 0x00, 0x00, 0x00, 0x10, 0x00, 0x00, 0x00, 0x40, 0xfb, 0xff, 0xff, 0x01, 0x00, 0x00, 0x00, 0x09, 0x00, 0x00, 0x00, 0x03, 0x00, 0x00, 0x00, 0x08, 0x00, 0x00, 0x00, 0x01, 0x00, 0x00, 0x00, 0x03, 0x00, 0x00, 0x00, 0xca, 0xff, 0xff, 0xff, 0x10, 0x00, 0x00, 0x00, 0x00, 0x00, 0x00, 0x08, 0x10, 0x00, 0x00, 0x00, 0x14, 0x00, 0x00, 0x00, 0xba, 0xff, 0xff, 0xff, 0x00, 0x00, 0x00, 0x01, 0x01, 0x00, 0x00, 0x00, 0x08, 0x00, 0x00, 0x00, 0x03, 0x00, 0x00, 0x00, 0x07, 0x00, 0x00, 0x00, 0x02, 0x00, 0x00, 0x00, 0x04, 0x00, 0x00, 0x00, 0x00, 0x00, 0x0e, 0x00, 0x16, 0x00, 0x00, 0x00, 0x10, 0x00, 0x0c, 0x00, 0x0b, 0x00, 0x04, 0x00, 0x0e, 0x00, 0x00, 0x00, 0x18, 0x00, 0x00, 0x00, 0x00, 0x00, 0x00, 0x08, 0x18, 0x00, 0x00, 0x00, 0x1c, 0x00, 0x00, 0x00, 0x00, 0x00, 0x06, 0x00, 0x08, 0x00, 0x07, 0x00, 0x06, 0x00, 0x00, 0x00, 0x00, 0x00, 0x00, 0x01, 0x01, 0x00, 0x00, 0x00, 0x07, 0x00, 0x00, 0x00, 0x03, 0x00, 0x00, 0x00, 0x00, 0x00, 0x00, 0x00, 0x06, 0x00, 0x00, 0x00, 0x05, 0x00, 0x00, 0x00, 0x01, 0x00, 0x00, 0x00, 0x0a, 0x00, 0x00, 0x00, 0x01, 0x00, 0x00, 0x00, 0x00, 0x00, 0x00, 0x00, 0x0b, 0x00, 0x00, 0x00, 0xe8, 0x03, 0x00, 0x00, 0x90, 0x03, 0x00, 0x00, 0x38, 0x03, 0x00, 0x00, 0xfc, 0x02, 0x00, 0x00, 0xa4, 0x02, 0x00, 0x00, 0x50, 0x02, 0x00, 0x00, 0x04, 0x02, 0x00, 0x00, 0x74, 0x01, 0x00, 0x00, 0xdc, 0x00, 0x00, 0x00, 0x60, 0x00, 0x00, 0x00, 0x04, 0x00, 0x00, 0x00, 0x5a, 0xfc, 0xff, 0xff, 0x00, 0x00, 0x00, 0x01, 0x14, 0x00, 0x00, 0x00, 0x1c, 0x00, 0x00, 0x00, 0x1c, 0x00, 0x00, 0x00, 0x0b, 0x00, 0x00, 0x00, 0x34, 0x00, 0x00, 0x00, 0x02, 0x00, 0x00, 0x00, 0xff, 0xff, 0xff, 0xff, 0x01, 0x00, 0x00, 0x00, 0x44, 0xfc, 0xff, 0xff, 0x1b, 0x00, 0x00, 0x00, 0x53, 0x74, 0x61, 0x74, 0x65, 0x66, 0x75, 0x6c, 0x50, 0x61, 0x72, 0x74, 0x69, 0x74, 0x69, 0x6f, 0x6e, 0x65, 0x64, 0x43, 0x61, 0x6c, 0x6c, 0x5f, 0x31, 0x3a, 0x30, 0x00, 0x02, 0x00, 0x00, 0x00, 0x01, 0x00, 0x00, 0x00, 0x01, 0x00, 0x00, 0x00, 0xb2, 0xfc, 0xff, 0xff, 0x00, 0x00, 0x00, 0x01, 0x14, 0x00, 0x00, 0x00, 0x1c, 0x00, 0x00, 0x00, 0x1c, 0x00, 0x00, 0x00, 0x0a, 0x00, 0x00, 0x00, 0x54, 0x00, 0x00, 0x00, 0x02, 0x00, 0x00, 0x00, 0xff, 0xff, 0xff, 0xff, 0x01, 0x00, 0x00, 0x00, 0x9c, 0xfc, 0xff, 0xff, 0x38, 0x00, 0x00, 0x00, 0x73, 0x65, 0x71, 0x75, 0x65, 0x6e, 0x74, 0x69, 0x61, 0x6c, 0x5f, 0x31, 0x2f, 0x64, 0x65, 0x6e, 0x73, 0x65, 0x5f, 0x32, 0x5f, 0x31, 0x2f, 0x4d, 0x61, 0x74, 0x4d, 0x75, 0x6c, 0x3b, 0x73, 0x65, 0x71, 0x75, 0x65, 0x6e, 0x74, 0x69, 0x61, 0x6c, 0x5f, 0x31, 0x2f, 0x64, 0x65, 0x6e, 0x73, 0x65, 0x5f, 0x32, 0x5f, 0x31, 0x2f, 0x41, 0x64, 0x64, 0x00, 0x00, 0x00, 0x00, 0x02, 0x00, 0x00, 0x00, 0x01, 0x00, 0x00, 0x00, 0x01, 0x00, 0x00, 0x00, 0x2a, 0xfd, 0xff, 0xff, 0x00, 0x00, 0x00, 0x01, 0x14, 0x00, 0x00, 0x00, 0x1c, 0x00, 0x00, 0x00, 0x1c, 0x00, 0x00, 0x00, 0x09, 0x00, 0x00, 0x00, 0x70, 0x00, 0x00, 0x00, 0x02, 0x00, 0x00, 0x00, 0xff, 0xff, 0xff, 0xff, 0x08, 0x00, 0x00, 0x00, 0x14, 0xfd, 0xff, 0xff, 0x54, 0x00, 0x00, 0x00, 0x73, 0x65, 0x71, 0x75, 0x65, 0x6e, 0x74, 0x69, 0x61, 0x6c, 0x5f, 0x31, 0x2f, 0x64, 0x65, 0x6e, 0x73, 0x65, 0x5f, 0x31, 0x5f, 0x32, 0x2f, 0x4d, 0x61, 0x74, 0x4d, 0x75, 0x6c, 0x3b, 0x73, 0x65, 0x71, 0x75, 0x65, 0x6e, 0x74, 0x69, 0x61, 0x6c, 0x5f, 0x31, 0x2f, 0x64, 0x65, 0x6e, 0x73, 0x65, 0x5f, 0x31, 0x5f, 0x32, 0x2f, 0x52, 0x65, 0x6c, 0x75, 0x3b, 0x73, 0x65, 0x71, 0x75, 0x65, 0x6e, 0x74, 0x69, 0x61, 0x6c, 0x5f, 0x31, 0x2f, 0x64, 0x65, 0x6e, 0x73, 0x65, 0x5f, 0x31, 0x5f, 0x32, 0x2f, 0x41, 0x64, 0x64, 0x00, 0x00, 0x00, 0x00, 0x02, 0x00, 0x00, 0x00, 0x01, 0x00, 0x00, 0x00, 0x08, 0x00, 0x00, 0x00, 0xbe, 0xfd, 0xff, 0xff, 0x00, 0x00, 0x00, 0x01, 0x14, 0x00, 0x00, 0x00, 0x1c, 0x00, 0x00, 0x00, 0x1c, 0x00, 0x00, 0x00, 0x08, 0x00, 0x00, 0x00, 0x68, 0x00, 0x00, 0x00, 0x02, 0x00, 0x00, 0x00, 0xff, 0xff, 0xff, 0xff, 0x10, 0x00, 0x00, 0x00, 0xa8, 0xfd, 0xff, 0xff, 0x4e, 0x00, 0x00, 0x00, 0x73, 0x65, 0x71, 0x75, 0x65, 0x6e, 0x74, 0x69, 0x61, 0x6c, 0x5f, 0x31, 0x2f, 0x64, 0x65, 0x6e, 0x73, 0x65, 0x5f, 0x31, 0x2f, 0x4d, 0x61, 0x74, 0x4d, 0x75, 0x6c, 0x3b, 0x73, 0x65, 0x71, 0x75, 0x65, 0x6e, 0x74, 0x69, 0x61, 0x6c, 0x5f, 0x31, 0x2f, 0x64, 0x65, 0x6e, 0x73, 0x65, 0x5f, 0x31, 0x2f, 0x52, 0x65, 0x6c, 0x75, 0x3b, 0x73, 0x65, 0x71, 0x75, 0x65, 0x6e, 0x74, 0x69, 0x61, 0x6c, 0x5f, 0x31, 0x2f, 0x64, 0x65, 0x6e, 0x73, 0x65, 0x5f, 0x31, 0x2f, 0x41, 0x64, 0x64, 0x00, 0x00, 0x02, 0x00, 0x00, 0x00, 0x01, 0x00, 0x00, 0x00, 0x10, 0x00, 0x00, 0x00, 0x9e, 0xfe, 0xff, 0xff, 0x00, 0x00, 0x00, 0x01, 0x10, 0x00, 0x00, 0x00, 0x10, 0x00, 0x00, 0x00, 0x07, 0x00, 0x00, 0x00, 0x28, 0x00, 0x00, 0x00, 0x24, 0xfe, 0xff, 0xff, 0x1b, 0x00, 0x00, 0x00, 0x73, 0x65, 0x71, 0x75, 0x65, 0x6e, 0x74, 0x69, 0x61, 0x6c, 0x5f, 0x31, 0x2f, 0x64, 0x65, 0x6e, 0x73, 0x65, 0x5f, 0x31, 0x2f, 0x4d, 0x61, 0x74, 0x4d, 0x75, 0x6c, 0x00, 0x02, 0x00, 0x00, 0x00, 0x10, 0x00, 0x00, 0x00, 0x03, 0x00, 0x00, 0x00, 0xe6, 0xfe, 0xff, 0xff, 0x00, 0x00, 0x00, 0x01, 0x10, 0x00, 0x00, 0x00, 0x10, 0x00, 0x00, 0x00, 0x06, 0x00, 0x00, 0x00, 0x34, 0x00, 0x00, 0x00, 0x6c, 0xfe, 0xff, 0xff, 0x27, 0x00, 0x00, 0x00, 0x73, 0x65, 0x71, 0x75, 0x65, 0x6e, 0x74, 0x69, 0x61, 0x6c, 0x5f, 0x31, 0x2f, 0x64, 0x65, 0x6e, 0x73, 0x65, 0x5f, 0x31, 0x2f, 0x41, 0x64, 0x64, 0x2f, 0x52, 0x65, 0x61, 0x64, 0x56, 0x61, 0x72, 0x69, 0x61, 0x62, 0x6c, 0x65, 0x4f, 0x70, 0x00, 0x01, 0x00, 0x00, 0x00, 0x10, 0x00, 0x00, 0x00, 0x36, 0xff, 0xff, 0xff, 0x00, 0x00, 0x00, 0x01, 0x10, 0x00, 0x00, 0x00, 0x10, 0x00, 0x00, 0x00, 0x05, 0x00, 0x00, 0x00, 0x38, 0x00, 0x00, 0x00, 0xbc, 0xfe, 0xff, 0xff, 0x29, 0x00, 0x00, 0x00, 0x73, 0x65, 0x71, 0x75, 0x65, 0x6e, 0x74, 0x69, 0x61, 0x6c, 0x5f, 0x31, 0x2f, 0x64, 0x65, 0x6e, 0x73, 0x65, 0x5f, 0x31, 0x5f, 0x32, 0x2f, 0x41, 0x64, 0x64, 0x2f, 0x52, 0x65, 0x61, 0x64, 0x56, 0x61, 0x72, 0x69, 0x61, 0x62, 0x6c, 0x65, 0x4f, 0x70, 0x00, 0x00, 0x00, 0x01, 0x00, 0x00, 0x00, 0x08, 0x00, 0x00, 0x00, 0x8a, 0xff, 0xff, 0xff, 0x00, 0x00, 0x00, 0x01, 0x10, 0x00, 0x00, 0x00, 0x10, 0x00, 0x00, 0x00, 0x04, 0x00, 0x00, 0x00, 0x1c, 0x00, 0x00, 0x00, 0x10, 0xff, 0xff, 0xff, 0x0f, 0x00, 0x00, 0x00, 0x61, 0x72, 0x69, 0x74, 0x68, 0x2e, 0x63, 0x6f, 0x6e, 0x73, 0x74, 0x61, 0x6e, 0x74, 0x32, 0x00, 0x01, 0x00, 0x00, 0x00, 0x01, 0x00, 0x00, 0x00, 0xc2, 0xff, 0xff, 0xff, 0x00, 0x00, 0x00, 0x01, 0x10, 0x00, 0x00, 0x00, 0x10, 0x00, 0x00, 0x00, 0x03, 0x00, 0x00, 0x00, 0x1c, 0x00, 0x00, 0x00, 0x48, 0xff, 0xff, 0xff, 0x0f, 0x00, 0x00, 0x00, 0x61, 0x72, 0x69, 0x74, 0x68, 0x2e, 0x63, 0x6f, 0x6e, 0x73, 0x74, 0x61, 0x6e, 0x74, 0x31, 0x00, 0x02, 0x00, 0x00, 0x00, 0x08, 0x00, 0x00, 0x00, 0x10, 0x00, 0x00, 0x00, 0x00, 0x00, 0x16, 0x00, 0x18, 0x00, 0x14, 0x00, 0x00, 0x00, 0x10, 0x00, 0x0c, 0x00, 0x08, 0x00, 0x00, 0x00, 0x00, 0x00, 0x00, 0x00, 0x07, 0x00, 0x16, 0x00, 0x00, 0x00, 0x00, 0x00, 0x00, 0x01, 0x10, 0x00, 0x00, 0x00, 0x10, 0x00, 0x00, 0x00, 0x02, 0x00, 0x00, 0x00, 0x1c, 0x00, 0x00, 0x00, 0x9c, 0xff, 0xff, 0xff, 0x0e, 0x00, 0x00, 0x00, 0x61, 0x72, 0x69, 0x74, 0x68, 0x2e, 0x63, 0x6f, 0x6e, 0x73, 0x74, 0x61, 0x6e, 0x74, 0x00, 0x00, 0x02, 0x00, 0x00, 0x00, 0x01, 0x00, 0x00, 0x00, 0x08, 0x00, 0x00, 0x00, 0x00, 0x00, 0x16, 0x00, 0x1c, 0x00, 0x18, 0x00, 0x00, 0x00, 0x14, 0x00, 0x10, 0x00, 0x0c, 0x00, 0x00, 0x00, 0x00, 0x00, 0x08, 0x00, 0x07, 0x00, 0x16, 0x00, 0x00, 0x00, 0x00, 0x00, 0x00, 0x01, 0x14, 0x00, 0x00, 0x00, 0x20, 0x00, 0x00, 0x00, 0x20, 0x00, 0x00, 0x00, 0x01, 0x00, 0x00, 0x00, 0x3c, 0x00, 0x00, 0x00, 0x02, 0x00, 0x00, 0x00, 0xff, 0xff, 0xff, 0xff, 0x03, 0x00, 0x00, 0x00, 0x04, 0x00, 0x04, 0x00, 0x04, 0x00, 0x00, 0x00, 0x1d, 0x00, 0x00, 0x00, 0x73, 0x65, 0x72, 0x76, 0x69, 0x6e, 0x67, 0x5f, 0x64, 0x65, 0x66, 0x61, 0x75, 0x6c, 0x74, 0x5f, 0x69, 0x6e, 0x70, 0x75, 0x74, 0x5f, 0x6c, 0x61, 0x79, 0x65, 0x72, 0x3a, 0x30, 0x00, 0x00, 0x00, 0x02, 0x00, 0x00, 0x00, 0x01, 0x00, 0x00, 0x00, 0x03, 0x00, 0x00, 0x00, 0x02, 0x00, 0x00, 0x00, 0x20, 0x00, 0x00, 0x00, 0x04, 0x00, 0x00, 0x00, 0xf4, 0xff, 0xff, 0xff, 0x0e, 0x00, 0x00, 0x00, 0x00, 0x00, 0x00, 0x0e, 0x0c, 0x00, 0x0c, 0x00, 0x0b, 0x00, 0x00, 0x00, 0x00, 0x00, 0x04, 0x00, 0x0c, 0x00, 0x00, 0x00, 0x09, 0x00, 0x00, 0x00, 0x00, 0x00, 0x00, 0x09};
unsigned int model_data_len = 2884;
