unsigned char g_model[] = {0x1c, 0x00, 0x00, 0x00, 0x54, 0x46, 0x4c, 0x33, 0x14, 0x00, 0x20, 0x00, 0x1c, 0x00, 0x18, 0x00, 0x14, 0x00, 0x10, 0x00, 0x0c, 0x00, 0x00, 0x00, 0x08, 0x00, 0x04, 0x00, 0x14, 0x00, 0x00, 0x00, 0x1c, 0x00, 0x00, 0x00, 0x88, 0x00, 0x00, 0x00, 0xe0, 0x00, 0x00, 0x00, 0x0c, 0x28, 0x00, 0x00, 0x1c, 0x28, 0x00, 0x00, 0xa0, 0x2d, 0x00, 0x00, 0x03, 0x00, 0x00, 0x00, 0x01, 0x00, 0x00, 0x00, 0x04, 0x00, 0x00, 0x00, 0xa6, 0xd7, 0xff, 0xff, 0x0c, 0x00, 0x00, 0x00, 0x1c, 0x00, 0x00, 0x00, 0x3c, 0x00, 0x00, 0x00, 0x0f, 0x00, 0x00, 0x00, 0x73, 0x65, 0x72, 0x76, 0x69, 0x6e, 0x67, 0x5f, 0x64, 0x65, 0x66, 0x61, 0x75, 0x6c, 0x74, 0x00, 0x01, 0x00, 0x00, 0x00, 0x04, 0x00, 0x00, 0x00, 0x94, 0xff, 0xff, 0xff, 0x0a, 0x00, 0x00, 0x00, 0x04, 0x00, 0x00, 0x00, 0x08, 0x00, 0x00, 0x00, 0x6f, 0x75, 0x74, 0x70, 0x75, 0x74, 0x5f, 0x30, 0x00, 0x00, 0x00, 0x00, 0x01, 0x00, 0x00, 0x00, 0x04, 0x00, 0x00, 0x00, 0xf6, 0xd8, 0xff, 0xff, 0x04, 0x00, 0x00, 0x00, 0x0b, 0x00, 0x00, 0x00, 0x69, 0x6e, 0x70, 0x75, 0x74, 0x5f, 0x6c, 0x61, 0x79, 0x65, 0x72, 0x00, 0x02, 0x00, 0x00, 0x00, 0x34, 0x00, 0x00, 0x00, 0x04, 0x00, 0x00, 0x00, 0xdc, 0xff, 0xff, 0xff, 0x0d, 0x00, 0x00, 0x00, 0x04, 0x00, 0x00, 0x00, 0x13, 0x00, 0x00, 0x00, 0x43, 0x4f, 0x4e, 0x56, 0x45, 0x52, 0x53, 0x49, 0x4f, 0x4e, 0x5f, 0x4d, 0x45, 0x54, 0x41, 0x44, 0x41, 0x54, 0x41, 0x00, 0x08, 0x00, 0x0c, 0x00, 0x08, 0x00, 0x04, 0x00, 0x08, 0x00, 0x00, 0x00, 0x0c, 0x00, 0x00, 0x00, 0x04, 0x00, 0x00, 0x00, 0x13, 0x00, 0x00, 0x00, 0x6d, 0x69, 0x6e, 0x5f, 0x72, 0x75, 0x6e, 0x74, 0x69, 0x6d, 0x65, 0x5f, 0x76, 0x65, 0x72, 0x73, 0x69, 0x6f, 0x6e, 0x00, 0x0e, 0x00, 0x00, 0x00, 0x28, 0x27, 0x00, 0x00, 0x20, 0x27, 0x00, 0x00, 0x90, 0x26, 0x00, 0x00, 0x78, 0x06, 0x00, 0x00, 0x64, 0x06, 0x00, 0x00, 0xd4, 0x05, 0x00, 0x00, 0xc4, 0x04, 0x00, 0x00, 0xb4, 0x00, 0x00, 0x00, 0xac, 0x00, 0x00, 0x00, 0xa4, 0x00, 0x00, 0x00, 0x9c, 0x00, 0x00, 0x00, 0x94, 0x00, 0x00, 0x00, 0x74, 0x00, 0x00, 0x00, 0x04, 0x00, 0x00, 0x00, 0xa6, 0xd9, 0xff, 0xff, 0x04, 0x00, 0x00, 0x00, 0x60, 0x00, 0x00, 0x00, 0x10, 0x00, 0x00, 0x00, 0x00, 0x00, 0x00, 0x00, 0x08, 0x00, 0x0e, 0x00, 0x08, 0x00, 0x04, 0x00, 0x08, 0x00, 0x00, 0x00, 0x10, 0x00, 0x00, 0x00, 0x24, 0x00, 0x00, 0x00, 0x00, 0x00, 0x06, 0x00, 0x08, 0x00, 0x04, 0x00, 0x06, 0x00, 0x00, 0x00, 0x04, 0x00, 0x00, 0x00, 0x00, 0x00, 0x00, 0x00, 0x0c, 0x00, 0x18, 0x00, 0x14, 0x00, 0x10, 0x00, 0x0c, 0x00, 0x04, 0x00, 0x0c, 0x00, 0x00, 0x00, 0x81, 0x33, 0xce, 0x96, 0x25, 0xd6, 0xa9, 0x06, 0x02, 0x00, 0x00, 0x00, 0x02, 0x00, 0x00, 0x00, 0x04, 0x00, 0x00, 0x00, 0x06, 0x00, 0x00, 0x00, 0x32, 0x2e, 0x31, 0x37, 0x2e, 0x30, 0x00, 0x00, 0x12, 0xda, 0xff, 0xff, 0x04, 0x00, 0x00, 0x00, 0x10, 0x00, 0x00, 0x00, 0x31, 0x2e, 0x31, 0x34, 0x2e, 0x30, 0x00, 0x00, 0x00, 0x00, 0x00, 0x00, 0x00, 0x00, 0x00, 0x00, 0x30, 0xd4, 0xff, 0xff, 0x34, 0xd4, 0xff, 0xff, 0x38, 0xd4, 0xff, 0xff, 0x3c, 0xd4, 0xff, 0xff, 0x3e, 0xda, 0xff, 0xff, 0x04, 0x00, 0x00, 0x00, 0x00, 0x04, 0x00, 0x00, 0xb8, 0xd0, 0xe9, 0xbd, 0xc6, 0x7a, 0xeb, 0xbc, 0x00, 0x00, 0xc0, 0x7f, 0x00, 0x00, 0xc0, 0x7f, 0xc1, 0x3c, 0x02, 0xbe, 0xde, 0x38, 0x98, 0x3e, 0x00, 0x00, 0xc0, 0x7f, 0x00, 0x00, 0xc0, 0x7f, 0xc7, 0x93, 0x96, 0xbe, 0x70, 0x38, 0x0f, 0xbe, 0x00, 0x00, 0xc0, 0x7f, 0x00, 0x00, 0xc0, 0x7f, 0x2e, 0x27, 0x34, 0x3e, 0xe6, 0x58, 0x77, 0xbe, 0x00, 0x00, 0xc0, 0x7f, 0x00, 0x00, 0xc0, 0x7f, 0x72, 0x90, 0x7d, 0x3d, 0x54, 0x7b, 0x2e, 0x3e, 0x00, 0x00, 0xc0, 0x7f, 0x00, 0x00, 0xc0, 0x7f, 0x53, 0x5c, 0xa2, 0x3d, 0xaa, 0x91, 0x07, 0x3e, 0x00, 0x00, 0xc0, 0x7f, 0x00, 0x00, 0xc0, 0x7f, 0xb4, 0xc3, 0xd4, 0x3a, 0xa6, 0x6b, 0xa5, 0xbd, 0x00, 0x00, 0xc0, 0x7f, 0x00, 0x00, 0xc0, 0x7f, 0x97, 0x64, 0xe9, 0x3b, 0xc7, 0x23, 0x89, 0xbe, 0x00, 0x00, 0xc0, 0x7f, 0x00, 0x00, 0xc0, 0x7f, 0xf8, 0xf8, 0x41, 0xbd, 0xb5, 0x75, 0x8e, 0xbe, 0x00, 0x00, 0xc0, 0x7f, 0x00, 0x00, 0xc0, 0x7f, 0x52, 0xfc, 0xbc, 0xbd, 0xc2, 0xaf, 0x92, 0xbd, 0x00, 0x00, 0xc0, 0x7f, 0x00, 0x00, 0xc0, 0x7f, 0x3b, 0x00, 0x41, 0x3e, 0xad, 0x05, 0xef, 0xbd, 0x00, 0x00, 0xc0, 0x7f, 0x00, 0x00, 0xc0, 0x7f, 0x08, 0x5f, 0x90, 0x3e, 0x40, 0x11, 0x97, 0xbd, 0x00, 0x00, 0xc0, 0x7f, 0x00, 0x00, 0xc0, 0x7f, 0x93, 0xdc, 0x26, 0x3e, 0x63, 0xc6, 0xaf, 0x3c, 0x00, 0x00, 0xc0, 0x7f, 0x00, 0x00, 0xc0, 0x7f, 0x7d, 0x5a, 0xe6, 0x3c, 0x57, 0xfc, 0xd9, 0x3d, 0x00, 0x00, 0xc0, 0x7f, 0x00, 0x00, 0xc0, 0x7f, 0x6f, 0xb8, 0x38, 0xbe, 0x0d, 0x20, 0xdf, 0x3d, 0x00, 0x00, 0xc0, 0x7f, 0x00, 0x00, 0xc0, 0x7f, 0xf3, 0x09, 0x77, 0xbd, 0x86, 0x28, 0xc9, 0xbd, 0x00, 0x00, 0xc0, 0x7f, 0x00, 0x00, 0xc0, 0x7f, 0x74, 0x34, 0x3b, 0xbe, 0x0c, 0xda, 0x0e, 0x3e, 0x00, 0x00, 0xc0, 0x7f, 0x00, 0x00, 0xc0, 0x7f, 0x26, 0x2a, 0x87, 0x3e, 0x27, 0x43, 0x41, 0x3e, 0x00, 0x00, 0xc0, 0x7f, 0x00, 0x00, 0xc0, 0x7f, 0x36, 0x38, 0xa4, 0xbb, 0x5f, 0xc5, 0x0d, 0xbe, 0x00, 0x00, 0xc0, 0x7f, 0x00, 0x00, 0xc0, 0x7f, 0xf5, 0xae, 0x6f, 0x3e, 0xf9, 0xfd, 0x65, 0x3e, 0x00, 0x00, 0xc0, 0x7f, 0x00, 0x00, 0xc0, 0x7f, 0x86, 0x24, 0x6e, 0xbe, 0x5d, 0xd5, 0x1a, 0xbd, 0x00, 0x00, 0xc0, 0x7f, 0x00, 0x00, 0xc0, 0x7f, 0x8a, 0xc7, 0x1a, 0xbd, 0x82, 0xb2, 0xad, 0x3d, 0x00, 0x00, 0xc0, 0x7f, 0x00, 0x00, 0xc0, 0x7f, 0x54, 0x6b, 0x08, 0x3e, 0x46, 0xd5, 0xd7, 0x3d, 0x00, 0x00, 0xc0, 0x7f, 0x00, 0x00, 0xc0, 0x7f, 0x1f, 0x92, 0x0e, 0x3e, 0xa7, 0x16, 0x47, 0x3d, 0x00, 0x00, 0xc0, 0x7f, 0x00, 0x00, 0xc0, 0x7f, 0x6b, 0xdd, 0xe0, 0xbd, 0x53, 0x69, 0xf9, 0x3d, 0x00, 0x00, 0xc0, 0x7f, 0x00, 0x00, 0xc0, 0x7f, 0xd9, 0x13, 0x30, 0xbe, 0x3c, 0xe7, 0x7e, 0xbe, 0x00, 0x00, 0xc0, 0x7f, 0x00, 0x00, 0xc0, 0x7f, 0x74, 0xcb, 0x85, 0xbe, 0x28, 0x8d, 0x93, 0x3e, 0x00, 0x00, 0xc0, 0x7f, 0x00, 0x00, 0xc0, 0x7f, 0x7b, 0x96, 0x92, 0xbe, 0x5a, 0xcb, 0x47, 0x3c, 0x00, 0x00, 0xc0, 0x7f, 0x00, 0x00, 0xc0, 0x7f, 0x82, 0x23, 0x10, 0x3e, 0x8f, 0x3d, 0xe5, 0x3c, 0x00, 0x00, 0xc0, 0x7f, 0x00, 0x00, 0xc0, 0x7f, 0xe9, 0xe6, 0x00, 0x3e, 0xee, 0xa5, 0x36, 0x3e, 0x00, 0x00, 0xc0, 0x7f, 0x00, 0x00, 0xc0, 0x7f, 0xf6, 0xa2, 0xf4, 0xbd, 0x82, 0xc4, 0xec, 0x3c, 0x00, 0x00, 0xc0, 0x7f, 0x00, 0x00, 0xc0, 0x7f, 0x2a, 0xbf, 0x81, 0xbe, 0x55, 0x69, 0x10, 0x3e, 0x00, 0x00, 0xc0, 0x7f, 0x00, 0x00, 0xc0, 0x7f, 0xaf, 0xa3, 0x8e, 0xbe, 0x15, 0x42, 0xe8, 0x3d, 0x00, 0x00, 0xc0, 0x7f, 0x00, 0x00, 0xc0, 0x7f, 0xd7, 0x4b, 0x2d, 0x3e, 0x94, 0xf9, 0xad, 0x3c, 0x00, 0x00, 0xc0, 0x7f, 0x00, 0x00, 0xc0, 0x7f, 0x81, 0xed, 0x3b, 0x3e, 0xc1, 0xf1, 0x32, 0x3e, 0x00, 0x00, 0xc0, 0x7f, 0x00, 0x00, 0xc0, 0x7f, 0x18, 0xf1, 0x81, 0x3e, 0x96, 0x53, 0x33, 0xbe, 0x00, 0x00, 0xc0, 0x7f, 0x00, 0x00, 0xc0, 0x7f, 0xfd, 0x41, 0x43, 0xbe, 0x5d, 0x4d, 0x1b, 0x3e, 0x00, 0x00, 0xc0, 0x7f, 0x00, 0x00, 0xc0, 0x7f, 0x2a, 0x59, 0x98, 0xbd, 0xbf, 0xbc, 0x6f, 0x3e, 0x00, 0x00, 0xc0, 0x7f, 0x00, 0x00, 0xc0, 0x7f, 0x62, 0xcc, 0x49, 0xbe, 0x63, 0x5e, 0x2a, 0xbe, 0x00, 0x00, 0xc0, 0x7f, 0x00, 0x00, 0xc0, 0x7f, 0xb1, 0x80, 0x89, 0xbd, 0x1d, 0xdc, 0x53, 0xbe, 0x00, 0x00, 0xc0, 0x7f, 0x00, 0x00, 0xc0, 0x7f, 0x58, 0xf4, 0x50, 0x3e, 0x0c, 0x98, 0xce, 0xbd, 0x00, 0x00, 0xc0, 0x7f, 0x00, 0x00, 0xc0, 0x7f, 0x3e, 0x75, 0x90, 0x3e, 0xdb, 0xa8, 0x2c, 0x3e, 0x00, 0x00, 0xc0, 0x7f, 0x00, 0x00, 0xc0, 0x7f, 0xd8, 0x90, 0x01, 0x3e, 0x26, 0xb3, 0x5c, 0xbd, 0x00, 0x00, 0xc0, 0x7f, 0x00, 0x00, 0xc0, 0x7f, 0xd6, 0x62, 0x71, 0xbe, 0x94, 0x53, 0xc8, 0x3d, 0x00, 0x00, 0xc0, 0x7f, 0x00, 0x00, 0xc0, 0x7f, 0x93, 0xee, 0x5f, 0x3e, 0x45, 0x77, 0x98, 0xbd, 0x00, 0x00, 0xc0, 0x7f, 0x00, 0x00, 0xc0, 0x7f, 0xb2, 0xdd, 0x07, 0x3e, 0x5f, 0x4c, 0xf5, 0x3d, 0x00, 0x00, 0xc0, 0x7f, 0x00, 0x00, 0xc0, 0x7f, 0xdb, 0x15, 0x96, 0xbe, 0xcb, 0xa2, 0xfb, 0xbc, 0x00, 0x00, 0xc0, 0x7f, 0x00, 0x00, 0xc0, 0x7f, 0x0e, 0xe7, 0x77, 0xbe, 0xf0, 0x92, 0x0c, 0x3d, 0x00, 0x00, 0xc0, 0x7f, 0x00, 0x00, 0xc0, 0x7f, 0x62, 0xa1, 0xec, 0x3c, 0x72, 0xaa, 0x73, 0xbd, 0x00, 0x00, 0xc0, 0x7f, 0x00, 0x00, 0xc0, 0x7f, 0x50, 0x0a, 0x82, 0x3e, 0x29, 0x87, 0xf6, 0x3d, 0x00, 0x00, 0xc0, 0x7f, 0x00, 0x00, 0xc0, 0x7f, 0x10, 0xe9, 0x83, 0xbe, 0x97, 0x98, 0x1d, 0x3e, 0x00, 0x00, 0xc0, 0x7f, 0x00, 0x00, 0xc0, 0x7f, 0x3c, 0x65, 0xd4, 0x3c, 0x60, 0xf2, 0xb0, 0x3d, 0x00, 0x00, 0xc0, 0x7f, 0x00, 0x00, 0xc0, 0x7f, 0x77, 0xe7, 0x2e, 0xbe, 0x45, 0xc6, 0x36, 0x3e, 0x00, 0x00, 0xc0, 0x7f, 0x00, 0x00, 0xc0, 0x7f, 0x5a, 0xc5, 0x59, 0xbe, 0x53, 0xf3, 0x00, 0x3e, 0x00, 0x00, 0xc0, 0x7f, 0x00, 0x00, 0xc0, 0x7f, 0x34, 0x57, 0xbd, 0xbd, 0x8e, 0x27, 0x1c, 0xbe, 0x00, 0x00, 0xc0, 0x7f, 0x00, 0x00, 0xc0, 0x7f, 0xe9, 0x3a, 0x87, 0xbd, 0x1c, 0xa0, 0x80, 0x3e, 0x00, 0x00, 0xc0, 0x7f, 0x00, 0x00, 0xc0, 0x7f, 0x80, 0x36, 0x5c, 0x3e, 0x01, 0x04, 0x80, 0x3e, 0x00, 0x00, 0xc0, 0x7f, 0x00, 0x00, 0xc0, 0x7f, 0xc0, 0x20, 0x8a, 0xbe, 0x48, 0x86, 0x02, 0x3e, 0x00, 0x00, 0xc0, 0x7f, 0x00, 0x00, 0xc0, 0x7f, 0x19, 0x42, 0xfe, 0x3d, 0x30, 0xc2, 0x30, 0xbd, 0x00, 0x00, 0xc0, 0x7f, 0x00, 0x00, 0xc0, 0x7f, 0xfd, 0xbf, 0x49, 0x3e, 0x2c, 0x76, 0x3c, 0x3e, 0x00, 0x00, 0xc0, 0x7f, 0x00, 0x00, 0xc0, 0x7f, 0x5c, 0xe3, 0x82, 0x3e, 0x5a, 0xb1, 0xcd, 0xbd, 0x00, 0x00, 0xc0, 0x7f, 0x00, 0x00, 0xc0, 0x7f, 0x28, 0x91, 0x13, 0x3e, 0x38, 0x8e, 0x58, 0xbe, 0x00, 0x00, 0xc0, 0x7f, 0x00, 0x00, 0xc0, 0x7f, 0xf4, 0xdd, 0x6c, 0x3e, 0x75, 0xda, 0x54, 0x3e, 0x00, 0x00, 0xc0, 0x7f, 0x00, 0x00, 0xc0, 0x7f, 0xd7, 0x68, 0x39, 0x3e, 0xd2, 0x59, 0x01, 0x3e, 0x00, 0x00, 0xc0, 0x7f, 0x00, 0x00, 0xc0, 0x7f, 0x4a, 0xde, 0xff, 0xff, 0x04, 0x00, 0x00, 0x00, 0x00, 0x01, 0x00, 0x00, 0x41, 0xb9, 0xc4, 0xbb, 0x6a, 0xc3, 0xc4, 0x3b, 0xe1, 0xb3, 0xc4, 0x3b, 0x8c, 0x9f, 0xc4, 0x3b, 0x4a, 0xe0, 0xc3, 0xbb, 0x51, 0xbf, 0xc4, 0xbb, 0xb9, 0xc1, 0xc4, 0x3b, 0x19, 0xc2, 0xc4, 0x3b, 0xbe, 0xc2, 0xc4, 0xbb, 0xad, 0xc3, 0xc4, 0xbb, 0x63, 0xbe, 0xc4, 0xbb, 0x35, 0xbc, 0xc4, 0x3b, 0xd3, 0xc6, 0xc4, 0x3b, 0xec, 0xba, 0xc4, 0x3b, 0xad, 0xad, 0xc4, 0x3b, 0xa7, 0xc4, 0xc4, 0xbb, 0x22, 0xa2, 0xc4, 0x3b, 0x9c, 0x9e, 0xc4, 0xbb, 0xc6, 0xbf, 0xc4, 0xbb, 0xcc, 0xc4, 0xc4, 0xbb, 0x0c, 0xc4, 0xc4, 0x3b, 0x84, 0xc6, 0xc4, 0x3b, 0xee, 0xc6, 0xc4, 0x3b, 0x90, 0xc3, 0xc4, 0xbb, 0x6a, 0xc3, 0xc4, 0x3b, 0x23, 0xc4, 0xc4, 0x3b, 0xba, 0xc5, 0xc4, 0xbb, 0x35, 0xc3, 0xc4, 0x3b, 0xa9, 0xae, 0xc4, 0xbb, 0x6f, 0xc0, 0xc4, 0x3b, 0xbe, 0x6c, 0xc0, 0xbb, 0x19, 0xc5, 0xc4, 0x3b, 0xd9, 0xc0, 0xc4, 0x3b, 0xff, 0xc3, 0xc4, 0x3b, 0x5b, 0xc2, 0xc4, 0xbb, 0xbc, 0xc4, 0xc4, 0x3b, 0x1f, 0x65, 0xc4, 0xbb, 0x1b, 0xbe, 0xc4, 0xbb, 0xfc, 0xc5, 0xc4, 0xbb, 0x49, 0xc4, 0xc4, 0xbb, 0xbd, 0xc5, 0xc4, 0x3b, 0x38, 0xc5, 0xc4, 0x3b, 0xb9, 0x0b, 0xc4, 0xbb, 0xe2, 0xc5, 0xc4, 0xbb, 0xe3, 0xb2, 0xc4, 0x3b, 0xa9, 0x7a, 0xc4, 0xbb, 0x53, 0xc3, 0xc4, 0x3b, 0x53, 0xc5, 0xc4, 0x3b, 0xa3, 0xb7, 0xc4, 0xbb, 0x45, 0xc3, 0xc4, 0xbb, 0x33, 0xb7, 0xc4, 0x3b, 0x9e, 0xc2, 0xc4, 0xbb, 0xda, 0xc0, 0xc4, 0x3b, 0xd3, 0xa1, 0xc4, 0x3b, 0x22, 0xc0, 0xc4, 0x3b, 0xa4, 0xc4, 0xc4, 0xbb, 0x9c, 0x07, 0xc4, 0xbb, 0x53, 0xc1, 0xc4, 0xbb, 0xf7, 0xc0, 0xc4, 0x3b, 0x2c, 0xc6, 0xc4, 0x3b, 0xb7, 0xbc, 0xc4, 0x3b, 0x88, 0xbd, 0xc4, 0xbb, 0xf4, 0xc5, 0xc4, 0x3b, 0xa8, 0xc6, 0xc4, 0xbb, 0x56, 0xdf, 0xff, 0xff, 0x04, 0x00, 0x00, 0x00, 0x80, 0x00, 0x00, 0x00, 0x5a, 0x27, 0x89, 0x3e, 0xb7, 0xc4, 0xc4, 0xbb, 0x5b, 0xa1, 0xc4, 0xbb, 0x69, 0x9a, 0x88, 0x3e, 0xa1, 0xf2, 0xa9, 0x3e, 0x00, 0x00, 0x00, 0x00, 0x5c, 0x49, 0xc4, 0xbb, 0x6c, 0xc4, 0xc4, 0xbb, 0xd3, 0xc6, 0xc4, 0xbb, 0x88, 0xc4, 0xc4, 0xbb, 0x12, 0xc7, 0xc4, 0xbb, 0xe4, 0x8e, 0x93, 0x3e, 0xa1, 0xb9, 0xc4, 0xbb, 0xb9, 0xc7, 0xc4, 0xbb, 0x4f, 0x0e, 0x90, 0x3e, 0x98, 0xc6, 0xc4, 0xbb, 0xf6, 0xe8, 0xe0, 0x3e, 0x54, 0xc6, 0xc4, 0xbb, 0x4d, 0x9d, 0xe1, 0xbb, 0x1a, 0xb3, 0xc4, 0xbb, 0xcb, 0x0a, 0x9c, 0x3e, 0x85, 0x05, 0x93, 0x3e, 0xc8, 0x27, 0xd4, 0x3e, 0xbb, 0x18, 0xab, 0x3e, 0x94, 0x9c, 0x8b, 0x3e, 0x54, 0xac, 0x91, 0x3e, 0x67, 0xc6, 0x84, 0x3e, 0x0d, 0xc7, 0xc4, 0xbb, 0xfb, 0xc7, 0xc4, 0xbb, 0x2c, 0xca, 0x8d, 0x3e, 0x7b, 0xf2, 0x94, 0x3e, 0xd5, 0xb5, 0x97, 0x3e, 0xe2, 0xdf, 0xff, 0xff, 0x04, 0x00, 0x00, 0x00, 0x04, 0x00, 0x00, 0x00, 0xef, 0x1a, 0x68, 0x3e, 0xf2, 0xdf, 0xff, 0xff, 0x04, 0x00, 0x00, 0x00, 0x00, 0x20, 0x00, 0x00, 0x48, 0xf1, 0xf8, 0xbd, 0xbe, 0x20, 0x60, 0xbe, 0xab, 0x81, 0x14, 0xbd, 0xc8, 0x06, 0x2d, 0xbe, 0x1d, 0x2e, 0x5a, 0xbe, 0x81, 0xcc, 0x1d, 0xbe, 0x61, 0x57, 0xaf, 0xbd, 0x39, 0x39, 0x1c, 0x3e, 0xc7, 0x29, 0x0e, 0x3c, 0x54, 0x6c, 0x53, 0xbe, 0x78, 0xd3, 0x6c, 0x3d, 0x20, 0x1f, 0x52, 0xbd, 0x20, 0xd6, 0x70, 0x3e, 0xf1, 0x86, 0x04, 0x3e, 0x68, 0x90, 0x7a, 0xbd, 0x28, 0xc9, 0x98, 0x3d, 0xf3, 0xe0, 0x05, 0x3d, 0x38, 0xf0, 0x1b, 0x3e, 0x8e, 0x7b, 0x80, 0xbd, 0x0b, 0x97, 0x34, 0x3e, 0xb2, 0xea, 0xd5, 0x3d, 0x37, 0xf2, 0x10, 0x3e, 0xdc, 0x4e, 0xc5, 0xbd, 0xf5, 0xf7, 0x3b, 0xbe, 0xbf, 0x2e, 0x2a, 0x3e, 0x01, 0xb7, 0x6a, 0xbe, 0x23, 0x25, 0xb7, 0xbd, 0x03, 0x4b, 0xbc, 0xbc, 0x90, 0x5e, 0x5a, 0x3e, 0x97, 0xe1, 0x2a, 0x3d, 0x41, 0xa7, 0x63, 0xbe, 0x0b, 0xca, 0x81, 0x3e, 0xb8, 0x62, 0x74, 0xbe, 0x54, 0x51, 0x02, 0xbe, 0xd4, 0xce, 0xef, 0x3c, 0x68, 0xf5, 0x2b, 0x3c, 0x2f, 0x6e, 0x26, 0x3e, 0xb2, 0x45, 0x0c, 0xbe, 0xb8, 0x5f, 0xac, 0xbd, 0xbf, 0x0e, 0x0f, 0xbe, 0x4e, 0x43, 0x74, 0x3e, 0x01, 0x47, 0x55, 0xbe, 0x15, 0x71, 0x5b, 0xbd, 0x47, 0x0e, 0xf3, 0xbd, 0x67, 0x71, 0x62, 0xbd, 0x47, 0xde, 0xaa, 0xbd, 0x15, 0xa5, 0xff, 0x3d, 0x7a, 0xde, 0xe6, 0xbd, 0xda, 0x63, 0x3d, 0xbe, 0x63, 0xe0, 0x77, 0x3e, 0xbe, 0xbb, 0x91, 0x3d, 0x5b, 0x82, 0xf5, 0x3d, 0xcc, 0x3e, 0xe4, 0x3c, 0x71, 0xea, 0xd3, 0xbd, 0x8f, 0x25, 0x76, 0xbe, 0x15, 0x76, 0x92, 0x3d, 0xf9, 0x4a, 0x81, 0x3e, 0x0b, 0xa3, 0x39, 0x3e, 0x3e, 0x31, 0xec, 0xbd, 0x9e, 0x6c, 0x66, 0x3d, 0x96, 0x79, 0x33, 0xbe, 0x43, 0xd5, 0x53, 0xbe, 0x00, 0xf3, 0xb9, 0xba, 0x2e, 0x3c, 0xee, 0xbd, 0x32, 0x63, 0x25, 0x3e, 0x82, 0x15, 0x21, 0xbe, 0x5e, 0x5c, 0xb9, 0x3c, 0xff, 0x0a, 0xeb, 0xba, 0xe7, 0x13, 0x2c, 0x3e, 0x4d, 0xab, 0x06, 0xbc, 0x1c, 0xcd, 0x07, 0x3e, 0x71, 0x56, 0x4e, 0x3e, 0x20, 0x6c, 0x5e, 0xbe, 0xf4, 0x1a, 0x7b, 0xbc, 0xfd, 0x69, 0x98, 0x3d, 0x2e, 0xbe, 0x17, 0xbe, 0xa8, 0x44, 0x01, 0xbe, 0xc4, 0x89, 0x51, 0xbe, 0x27, 0x13, 0x4c, 0xbe, 0x47, 0xae, 0x5a, 0xbe, 0x63, 0xc9, 0x4f, 0x3e, 0x00, 0xe3, 0x26, 0x3e, 0xbf, 0x23, 0x13, 0x3e, 0x8e, 0x81, 0xde, 0x3d, 0x1b, 0x79, 0x77, 0x3e, 0x02, 0x48, 0x01, 0xbe, 0x4f, 0xe8, 0x1e, 0xbe, 0x7b, 0x6e, 0x0f, 0xbe, 0xd4, 0x08, 0x3e, 0x3d, 0x2d, 0x7c, 0x3f, 0xbd, 0xd6, 0x9e, 0xd3, 0xbc, 0xca, 0x2f, 0x73, 0xbd, 0x7b, 0x5b, 0x39, 0x3e, 0xef, 0x44, 0xe9, 0xbd, 0x5d, 0xa9, 0x02, 0xbe, 0x5e, 0x2a, 0x10, 0xbe, 0x8c, 0x4a, 0x9d, 0xbc, 0x2f, 0x26, 0xfd, 0xbd, 0x92, 0x87, 0xec, 0x3d, 0x4f, 0x76, 0xc8, 0xbd, 0xa3, 0x4d, 0x81, 0xbd, 0x68, 0x3a, 0x0e, 0x3e, 0x97, 0x55, 0x30, 0x3e, 0xad, 0x9e, 0x2a, 0x3e, 0x62, 0xbb, 0x2d, 0x3d, 0xda, 0x4d, 0x4e, 0xbe, 0xf5, 0xe2, 0x7e, 0xbe, 0x16, 0xc7, 0x9d, 0xbd, 0x6e, 0xa6, 0x2f, 0xbe, 0x4e, 0xc7, 0x75, 0x3e, 0x9f, 0xdb, 0x19, 0x3e, 0xc3, 0xf3, 0x65, 0xbe, 0xa4, 0x0e, 0x73, 0x3e, 0x5f, 0xb0, 0x40, 0xbe, 0xe1, 0x81, 0x6b, 0x3d, 0x57, 0x06, 0x77, 0xbe, 0xd8, 0x7e, 0x99, 0x3d, 0x7d, 0xc6, 0x28, 0xbb, 0x56, 0xa2, 0x7b, 0xbe, 0x69, 0xd8, 0xc0, 0xbd, 0xa0, 0x78, 0x39, 0x3e, 0xb0, 0x61, 0x42, 0x3e, 0x0e, 0x46, 0x16, 0x3e, 0x1f, 0x24, 0x2d, 0xbe, 0x80, 0x31, 0xe9, 0xbd, 0x93, 0x4e, 0x8e, 0xbc, 0x52, 0x81, 0x1d, 0xbe, 0x3d, 0x79, 0x09, 0xbe, 0xfa, 0x68, 0x2c, 0xbd, 0x62, 0x96, 0x30, 0xbc, 0x05, 0x16, 0x75, 0x3e, 0x14, 0x8c, 0x79, 0xbd, 0x9f, 0x56, 0x50, 0x3e, 0xa6, 0x35, 0x2f, 0x3b, 0x36, 0x6e, 0xf0, 0xbd, 0x4f, 0x42, 0xf6, 0x3d, 0xfe, 0xd9, 0x7d, 0xbd, 0x94, 0x69, 0x34, 0x3e, 0x5b, 0x69, 0x46, 0xbd, 0xe3, 0xe9, 0x13, 0xbe, 0x26, 0xed, 0x52, 0x3e, 0x96, 0xef, 0x22, 0x3e, 0xc9, 0xa7, 0xf9, 0x3d, 0xcc, 0xb3, 0x35, 0xbd, 0x7b, 0xe5, 0x61, 0xbe, 0x50, 0x13, 0x19, 0x3e, 0x39, 0xe1, 0x62, 0xbc, 0x91, 0xf6, 0x37, 0xbe, 0x8f, 0x14, 0x96, 0x3d, 0x03, 0x4c, 0x73, 0xbe, 0x45, 0x72, 0x54, 0x3e, 0x8e, 0x74, 0xe5, 0xbd, 0xd6, 0xf2, 0x38, 0xbe, 0x1c, 0xe3, 0xca, 0x3d, 0xf0, 0xb9, 0x67, 0xbe, 0x08, 0xfc, 0x5e, 0x3e, 0x07, 0xd7, 0xc8, 0xbd, 0x47, 0xcc, 0x72, 0x3d, 0xbc, 0xe6, 0x92, 0xbd, 0x41, 0x8f, 0x4c, 0xbe, 0x60, 0x48, 0xf8, 0xbd, 0xbe, 0x55, 0x45, 0x3e, 0xa2, 0xb8, 0x15, 0x3e, 0xcb, 0x2b, 0x00, 0x3e, 0x06, 0x3a, 0xfa, 0x3d, 0xf5, 0x75, 0x9a, 0x3d, 0x8e, 0x1c, 0x3e, 0xbe, 0x1b, 0xfa, 0x82, 0xbd, 0x56, 0x8b, 0xad, 0xbd, 0x48, 0xda, 0x36, 0xbe, 0xda, 0xc0, 0x6d, 0xbe, 0x8b, 0xb8, 0xda, 0x3d, 0x5e, 0x33, 0x21, 0x3e, 0xdf, 0xbb, 0x3c, 0x3e, 0xda, 0x99, 0x1f, 0xbe, 0x91, 0x0c, 0x30, 0x3e, 0x46, 0xb4, 0xe9, 0x3d, 0x84, 0x7d, 0xfa, 0xbd, 0x64, 0x63, 0x05, 0x3e, 0x32, 0x82, 0x07, 0x3c, 0x0e, 0xfb, 0xd4, 0x3d, 0x02, 0x25, 0x11, 0x3e, 0x4a, 0xa3, 0xda, 0x3c, 0xdd, 0x8b, 0x2e, 0xbd, 0x8a, 0xa6, 0xa4, 0xbd, 0x3a, 0xbf, 0x1e, 0x3e, 0xf3, 0xa5, 0x30, 0xbe, 0x9f, 0xb4, 0x9f, 0xbd, 0x5a, 0xd0, 0x9b, 0xbd, 0x50, 0x13, 0x44, 0x3d, 0xf2, 0x91, 0xb2, 0xbd, 0xfa, 0xd2, 0x0a, 0x3e, 0xb0, 0x43, 0xe1, 0x3d, 0x74, 0x78, 0x11, 0x3c, 0x23, 0xf8, 0x0a, 0x3e, 0x04, 0xbb, 0x88, 0xbb, 0x13, 0x87, 0x93, 0x3c, 0x3e, 0x98, 0x2e, 0xbd, 0xf4, 0xfb, 0x2e, 0xbe, 0x7f, 0x5a, 0xfa, 0xbb, 0x84, 0xcc, 0x86, 0xbd, 0x8a, 0x2c, 0x01, 0xbe, 0x23, 0x31, 0x81, 0x3e, 0x19, 0xd0, 0x51, 0x3e, 0x28, 0xdd, 0x54, 0x3e, 0x08, 0xe3, 0x71, 0xbe, 0x12, 0xf5, 0xec, 0x3d, 0x31, 0x6b, 0x2e, 0xbc, 0x6d, 0x88, 0x82, 0x3e, 0x46, 0x0c, 0x48, 0x3d, 0xe7, 0xec, 0x44, 0x3d, 0x0a, 0x68, 0x7d, 0x38, 0x70, 0x42, 0x25, 0x3e, 0xab, 0x9a, 0x21, 0x3e, 0x80, 0x0d, 0x41, 0x3e, 0xa5, 0xaa, 0x49, 0x3c, 0x8e, 0xe9, 0x7e, 0x3e, 0x54, 0x60, 0x40, 0x3e, 0xc8, 0x52, 0xac, 0xbc, 0x9d, 0x8f, 0x21, 0x3e, 0x3d, 0x7b, 0x50, 0xbe, 0x6b, 0x87, 0x70, 0xbd, 0x3a, 0xd2, 0x59, 0x3e, 0xa7, 0x6e, 0x00, 0x3e, 0x8c, 0x9d, 0xe5, 0xbd, 0xb5, 0x71, 0x63, 0x3e, 0x00, 0x4f, 0x76, 0xbe, 0x8c, 0x26, 0x19, 0x3e, 0x8f, 0xd8, 0x06, 0x3e, 0xbe, 0x23, 0x18, 0x3e, 0x6a, 0x0c, 0x32, 0xbe, 0x62, 0x29, 0x30, 0xbe, 0x20, 0x87, 0x75, 0xbe, 0x0b, 0x9b, 0x23, 0x3e, 0xa8, 0xe9, 0x49, 0x3d, 0x0d, 0x62, 0x90, 0xbd, 0x20, 0xc3, 0x01, 0x3e, 0xb8, 0x9d, 0x24, 0x3e, 0xf5, 0x28, 0x23, 0x3e, 0x03, 0x15, 0x23, 0x3e, 0x38, 0x99, 0x3d, 0x3e, 0x90, 0xf5, 0xcd, 0x3d, 0xa2, 0xd0, 0x1e, 0xbd, 0x35, 0x6c, 0x8a, 0xbd, 0x1b, 0x13, 0x06, 0xbb, 0x4a, 0xa5, 0xdc, 0x3d, 0x11, 0x93, 0xb7, 0xbd, 0x6a, 0x67, 0xdf, 0xbd, 0xd0, 0xba, 0x31, 0x3e, 0x9f, 0xff, 0xd8, 0xbd, 0x02, 0xb8, 0x3c, 0x3e, 0x44, 0x74, 0x50, 0xbe, 0x15, 0xca, 0x73, 0x3e, 0x24, 0x02, 0x58, 0xbe, 0x9d, 0xfc, 0x67, 0x3e, 0xa1, 0x53, 0xab, 0xbd, 0x8d, 0x41, 0xef, 0xbd, 0x0b, 0x51, 0xfd, 0xbd, 0x5e, 0x3e, 0x01, 0xbe, 0x1e, 0x99, 0x47, 0xbe, 0x7d, 0xdd, 0x15, 0x3e, 0x86, 0x6f, 0x11, 0x3e, 0xf2, 0xb2, 0x52, 0x3e, 0x20, 0x93, 0xd1, 0x3d, 0x5b, 0x4b, 0xb7, 0x3d, 0x92, 0xc3, 0xc4, 0xbd, 0xac, 0x6a, 0x53, 0xbe, 0x1a, 0x12, 0x41, 0xbe, 0x5d, 0x6a, 0xfd, 0x3c, 0x0e, 0xc1, 0x9c, 0xbd, 0x1f, 0x7d, 0x59, 0x3e, 0xf6, 0xe5, 0x88, 0xbd, 0xb7, 0xd3, 0xde, 0x3d, 0x96, 0x30, 0x18, 0x3e, 0x16, 0x0c, 0xcb, 0xbd, 0xcb, 0x99, 0x32, 0x3e, 0x41, 0x24, 0x6d, 0xbe, 0xa7, 0x05, 0xb2, 0x3d, 0xfc, 0xe5, 0x70, 0x3e, 0x83, 0xa0, 0xcc, 0xbd, 0x44, 0x93, 0x84, 0x3d, 0xc7, 0x54, 0x57, 0x3e, 0xa2, 0x92, 0x68, 0xbe, 0x9d, 0xa9, 0x5e, 0xbe, 0x3b, 0xe8, 0x08, 0x3e, 0xad, 0xff, 0x9b, 0xbd, 0x3a, 0x3d, 0x61, 0x3e, 0x26, 0x0c, 0x3f, 0x3e, 0xbb, 0xf9, 0x82, 0x3e, 0x44, 0x03, 0x00, 0x3e, 0x4d, 0xdf, 0x5f, 0x3e, 0xc7, 0xfc, 0x0c, 0x3d, 0x22, 0x31, 0x6b, 0x3e, 0x7a, 0x10, 0x44, 0xbe, 0x47, 0x72, 0xbf, 0xbd, 0xdb, 0xf6, 0x5f, 0x3c, 0x0b, 0xad, 0x57, 0x3e, 0x97, 0x3e, 0x1b, 0x3e, 0x50, 0xf4, 0x4c, 0xbd, 0x68, 0xc9, 0xb3, 0xbd, 0x40, 0xf4, 0x1e, 0x3e, 0x38, 0x1d, 0x4f, 0x3e, 0xe6, 0x11, 0xa1, 0x3d, 0x94, 0x1b, 0x50, 0xbe, 0xad, 0x14, 0xba, 0xbd, 0x15, 0xe3, 0x0a, 0xbe, 0xb5, 0x23, 0xc3, 0xbc, 0x4b, 0x31, 0x3a, 0xbe, 0x2a, 0x15, 0x2f, 0x3e, 0x07, 0x69, 0xb3, 0x3d, 0xdf, 0x9e, 0x7b, 0x3e, 0x72, 0x5c, 0x5e, 0xbe, 0xaf, 0x00, 0xf7, 0xbd, 0xdd, 0x42, 0x63, 0x3d, 0xf3, 0x4e, 0x74, 0xbe, 0x7d, 0x17, 0xd4, 0x3d, 0x18, 0x68, 0x59, 0xbd, 0xe9, 0xef, 0x35, 0x3c, 0x48, 0x0a, 0xf9, 0x3b, 0x04, 0x17, 0x20, 0xbe, 0x68, 0x2c, 0x08, 0xbe, 0x38, 0xce, 0x38, 0xbe, 0x80, 0x64, 0x3a, 0x3e, 0xc0, 0x07, 0xaa, 0xbc, 0xe0, 0x1a, 0x5c, 0xbe, 0xc0, 0x61, 0x50, 0xbd, 0x70, 0x2b, 0xd8, 0xbd, 0xb0, 0xa1, 0x0f, 0x3e, 0xf0, 0x78, 0xd6, 0x3d, 0x00, 0x48, 0x69, 0xba, 0xa8, 0x59, 0x64, 0xbe, 0x90, 0x7a, 0xad, 0x3d, 0x50, 0x54, 0xdd, 0x3d, 0x40, 0x1e, 0xc3, 0x3c, 0xe8, 0x66, 0xba, 0xbd, 0x40, 0x29, 0xc2, 0xbc, 0x00, 0x6f, 0xdd, 0x3d, 0xe0, 0x44, 0xfe, 0x3c, 0x88, 0x06, 0xda, 0x3d, 0x74, 0x96, 0x13, 0xbe, 0x80, 0x63, 0xf7, 0xbb, 0x30, 0xab, 0x5f, 0x3d, 0x78, 0xef, 0xce, 0x3d, 0x40, 0xe5, 0xf1, 0x3d, 0x40, 0xd6, 0x8e, 0x3c, 0x18, 0xbc, 0x72, 0xbe, 0xa0, 0x59, 0xe7, 0x3d, 0xcc, 0x61, 0x3d, 0xbe, 0x50, 0xd0, 0xaa, 0x3d, 0x68, 0xde, 0x54, 0x3e, 0x38, 0x81, 0x8a, 0xbd, 0x98, 0x3f, 0xc3, 0xbd, 0x00, 0xdf, 0x21, 0xbe, 0xe4, 0x37, 0x5a, 0x3e, 0x60, 0xe8, 0x7a, 0x3d, 0xa0, 0x25, 0x62, 0xbe, 0x00, 0x4f, 0x5f, 0xbd, 0x18, 0x8f, 0x5b, 0x3e, 0x40, 0x9c, 0x93, 0xbd, 0x00, 0x56, 0xbe, 0xbd, 0x7c, 0xee, 0x0c, 0xbe, 0x20, 0xf4, 0x87, 0x3c, 0xe4, 0xd3, 0x5a, 0x3e, 0x80, 0xd7, 0x34, 0xbe, 0x1c, 0xcf, 0x24, 0xbe, 0x40, 0xe4, 0x0c, 0xbe, 0xdc, 0x70, 0x3e, 0x3e, 0x98, 0x7f, 0x99, 0xbd, 0x20, 0xd5, 0x13, 0xbe, 0x48, 0xdf, 0x52, 0xbe, 0xd8, 0x97, 0xb4, 0xbd, 0xf0, 0x05, 0x3f, 0xbe, 0xf0, 0x1a, 0x6a, 0xbd, 0xe0, 0xbf, 0x88, 0xbd, 0xd0, 0x89, 0x07, 0xbe, 0x48, 0x5b, 0xbc, 0xbd, 0x30, 0x11, 0xf9, 0xbd, 0x14, 0x2e, 0x2a, 0xbe, 0xa0, 0x07, 0x86, 0xbd, 0x44, 0x5b, 0x0c, 0x3e, 0x9c, 0x4b, 0x1c, 0xbe, 0x60, 0xd5, 0x17, 0x3e, 0xe0, 0xcb, 0x64, 0x3e, 0xd0, 0xde, 0xbb, 0x3d, 0xfd, 0x2d, 0x6e, 0x3c, 0x94, 0xc7, 0x5a, 0xbe, 0xd6, 0xa3, 0x73, 0xbe, 0x9e, 0x5c, 0x50, 0x3e, 0x6f, 0x7c, 0x5b, 0x3e, 0xfc, 0x61, 0xa1, 0x3d, 0x1a, 0x36, 0x22, 0x3e, 0x3c, 0xa9, 0x2f, 0xbe, 0x94, 0x97, 0x54, 0x3d, 0xbe, 0xbf, 0x03, 0xbe, 0x25, 0x2f, 0x49, 0xbe, 0xd0, 0x97, 0xb4, 0x3c, 0xdd, 0x0a, 0x7a, 0x3d, 0xfa, 0x36, 0x90, 0x3d, 0x26, 0x1b, 0x0e, 0x3c, 0xc6, 0xb0, 0x0f, 0xb9, 0xeb, 0x25, 0xee, 0x3d, 0xdf, 0x13, 0x2d, 0x3e, 0x1b, 0x91, 0x4e, 0x3e, 0x1a, 0xc7, 0x11, 0x3e, 0x5c, 0xd5, 0x01, 0xbe, 0x5c, 0xa1, 0x06, 0xbe, 0x20, 0xb3, 0x72, 0xbe, 0x49, 0x37, 0x54, 0x3e, 0x8e, 0x96, 0x24, 0x3e, 0xf2, 0x30, 0x7d, 0x3c, 0xb3, 0xde, 0x4d, 0x3e, 0xbd, 0x5a, 0xa0, 0x3b, 0x97, 0x96, 0x3c, 0xbe, 0x5c, 0x58, 0xe8, 0x3d, 0x05, 0x17, 0x6e, 0xbe, 0x2e, 0x80, 0x05, 0x3b, 0x93, 0x17, 0x06, 0x3e, 0x45, 0x33, 0x11, 0xbe, 0x77, 0x6f, 0x4b, 0x3e, 0x4b, 0x63, 0x59, 0xbe, 0xa5, 0x51, 0x26, 0xbe, 0xa0, 0x62, 0x67, 0xbe, 0x72, 0xb0, 0x0f, 0x3e, 0x61, 0x12, 0x6a, 0x3e, 0x08, 0xdb, 0xbc, 0x3d, 0x52, 0x9a, 0x3b, 0xbe, 0xcc, 0xdb, 0x25, 0x3e, 0x07, 0x5d, 0x60, 0x3d, 0xd4, 0x3a, 0x3f, 0x3e, 0x9d, 0x60, 0x42, 0xbe, 0x62, 0x12, 0x28, 0x3e, 0x94, 0x03, 0x63, 0x3e, 0x90, 0x50, 0x75, 0xbe, 0xed, 0x2c, 0x8a, 0xbd, 0x95, 0x16, 0xef, 0x3d, 0xc0, 0xab, 0x4e, 0x3c, 0x89, 0xa8, 0x1f, 0xbe, 0x49, 0x62, 0xe0, 0x3d, 0xd1, 0xb1, 0x4a, 0xbe, 0xd4, 0x75, 0x6d, 0x3d, 0xea, 0x71, 0x8b, 0x3d, 0x66, 0xeb, 0x5d, 0xbe, 0xd6, 0xa4, 0x33, 0xbd, 0x01, 0xc8, 0x21, 0xbe, 0x4d, 0x11, 0xa2, 0xbd, 0x37, 0x5c, 0xe8, 0x3d, 0x4c, 0x68, 0x76, 0x3e, 0x31, 0x83, 0x66, 0x3d, 0x20, 0x7f, 0x0c, 0xbd, 0xb7, 0xbb, 0xac, 0xbc, 0x0a, 0x31, 0x4d, 0xbe, 0xc7, 0xb4, 0x58, 0xbb, 0x40, 0xbc, 0x11, 0x3e, 0x65, 0x1a, 0x07, 0x3e, 0x16, 0x48, 0xf8, 0xbc, 0x48, 0xc1, 0x25, 0xbc, 0x67, 0x72, 0x49, 0x3d, 0x4c, 0x03, 0x66, 0x3e, 0x53, 0x30, 0x2a, 0xbe, 0xa3, 0x25, 0x7b, 0xbe, 0x64, 0x0f, 0x03, 0x3e, 0x65, 0x50, 0xbf, 0xbd, 0xf2, 0x82, 0xec, 0xbd, 0x94, 0xec, 0x42, 0x3e, 0x7c, 0x05, 0x1e, 0x3e, 0xb0, 0xa3, 0x5e, 0x3e, 0x37, 0x15, 0x0f, 0x3e, 0x38, 0xaf, 0x56, 0xbe, 0x70, 0x2d, 0x65, 0x3d, 0xfe, 0x10, 0x22, 0xbe, 0x31, 0x02, 0xdf, 0x3d, 0x36, 0x5a, 0xe6, 0x3c, 0x80, 0x60, 0xd3, 0x3c, 0xb2, 0xe4, 0x20, 0xbe, 0x8d, 0x08, 0x1e, 0x3e, 0x6f, 0xd2, 0x50, 0xbe, 0xad, 0x8d, 0x13, 0x3d, 0x8e, 0x25, 0x8f, 0x3d, 0xcc, 0x8e, 0x71, 0xbe, 0xb8, 0xe7, 0x33, 0x3d, 0x32, 0x36, 0x4d, 0x3e, 0xeb, 0xb0, 0xc3, 0x3d, 0x0c, 0x5b, 0x59, 0x3e, 0xf8, 0x5e, 0x16, 0xbe, 0x3f, 0x6d, 0x10, 0x3e, 0x1e, 0x2a, 0x87, 0x3c, 0x8c, 0xd6, 0x6f, 0xbe, 0x4f, 0x5f, 0x08, 0x3d, 0xc2, 0xad, 0x37, 0xbb, 0xee, 0x2b, 0xe8, 0x3d, 0x79, 0x1d, 0x7a, 0x3c, 0xb2, 0xc8, 0xa0, 0x3b, 0x00, 0xda, 0xf4, 0x3d, 0x5d, 0x3f, 0x52, 0xbc, 0x20, 0x34, 0x1e, 0xbe, 0x6b, 0xca, 0x92, 0xbd, 0xaa, 0xff, 0x99, 0x3d, 0x8a, 0x19, 0xde, 0x3d, 0x98, 0xcf, 0x89, 0x3d, 0x65, 0xd0, 0x46, 0xbe, 0x40, 0x60, 0x27, 0xbe, 0x09, 0xf4, 0xad, 0xbd, 0x5f, 0x55, 0x48, 0xbe, 0xff, 0x94, 0x7e, 0xbe, 0xfd, 0xac, 0x12, 0xbe, 0xb2, 0xee, 0x2d, 0xbe, 0xe3, 0xd7, 0x09, 0xbe, 0xd8, 0x89, 0x62, 0xbe, 0xb7, 0xd8, 0xb4, 0xbd, 0x0e, 0xaf, 0x5e, 0x3e, 0x95, 0x8d, 0xf1, 0x3d, 0x84, 0xbe, 0x28, 0xbd, 0x7a, 0xbb, 0x73, 0x3d, 0xb8, 0x52, 0xfb, 0xbd, 0xf5, 0x52, 0x56, 0x3e, 0xd4, 0xa1, 0x25, 0xbe, 0xf7, 0x32, 0x41, 0xbe, 0x50, 0xbc, 0x1b, 0x3d, 0xfe, 0xce, 0xab, 0xbd, 0xb2, 0x3f, 0x54, 0x3e, 0x40, 0x4f, 0x06, 0xbe, 0x6c, 0x50, 0x0e, 0xbe, 0xda, 0xb7, 0x05, 0xbe, 0xa2, 0xec, 0xb9, 0xbd, 0x56, 0xf2, 0xe0, 0xbd, 0x75, 0x11, 0x06, 0x3e, 0x57, 0x3b, 0x11, 0x3e, 0xea, 0x91, 0x78, 0xbe, 0x82, 0xd1, 0x9a, 0x3d, 0x81, 0x53, 0x46, 0x3e, 0x37, 0xae, 0xd5, 0xbd, 0xbb, 0x39, 0x32, 0xbd, 0x3a, 0x3c, 0x80, 0xbe, 0xba, 0x29, 0x0b, 0xbe, 0x4b, 0xab, 0xeb, 0xbd, 0x4c, 0x3c, 0x2a, 0x3e, 0x7c, 0x81, 0x30, 0xbe, 0x54, 0x32, 0x51, 0x3e, 0x5f, 0x7a, 0x5a, 0x3e, 0x5e, 0x29, 0x18, 0xbe, 0xd5, 0xee, 0x7d, 0x3d, 0x10, 0x8b, 0x2c, 0x3c, 0x36, 0x35, 0x59, 0x3d, 0xbc, 0xbc, 0x88, 0x3d, 0xef, 0xbe, 0x70, 0xbe, 0x88, 0xc2, 0x6f, 0xbe, 0x2b, 0x6d, 0x6a, 0x3e, 0x50, 0x91, 0x5e, 0x3e, 0x3c, 0x35, 0x80, 0xbe, 0x8f, 0x29, 0x44, 0xbe, 0xcb, 0x24, 0x6f, 0xbe, 0x74, 0x1b, 0xe9, 0xbb, 0x26, 0x5d, 0xc7, 0xbd, 0x35, 0xdd, 0x18, 0xbe, 0xa1, 0x3d, 0x7f, 0x3c, 0x23, 0xbc, 0x22, 0x3e, 0x2d, 0xd6, 0x0d, 0x3e, 0x2e, 0x3f, 0x70, 0x3e, 0xa8, 0x04, 0xb5, 0x3d, 0x88, 0x70, 0x12, 0xbe, 0x22, 0x41, 0xc7, 0xbc, 0x05, 0xaf, 0xae, 0x3d, 0x5e, 0x84, 0x76, 0x3e, 0xfd, 0xdb, 0x55, 0x3e, 0xaf, 0xcb, 0xab, 0xbd, 0x84, 0x12, 0x04, 0xbe, 0x26, 0xd2, 0x30, 0x3d, 0xcb, 0x6f, 0x3a, 0xbe, 0x54, 0x26, 0x54, 0x3e, 0xaf, 0x50, 0x97, 0xbd, 0xd3, 0x7a, 0xaa, 0x3d, 0x2f, 0xe5, 0x80, 0xbd, 0x6b, 0xc0, 0x77, 0xbe, 0x8d, 0x78, 0x29, 0x3e, 0xf1, 0xd6, 0x1f, 0xbd, 0xb3, 0x20, 0x43, 0x3e, 0xe3, 0x74, 0xab, 0x3d, 0x09, 0xa3, 0x9e, 0xbc, 0x45, 0xbd, 0xcd, 0xbd, 0x35, 0xc4, 0xff, 0xbc, 0xa3, 0x47, 0x08, 0x3e, 0x18, 0x34, 0xf0, 0xbd, 0x44, 0xc3, 0xe9, 0xbd, 0xfd, 0x81, 0xfe, 0xbd, 0x04, 0x10, 0x0a, 0x3e, 0x02, 0x16, 0x39, 0x3e, 0x8e, 0x71, 0x72, 0x3d, 0x75, 0xf9, 0x94, 0x3d, 0x4c, 0x19, 0xaf, 0x3d, 0xa7, 0xf0, 0x48, 0xbe, 0x2f, 0x91, 0x95, 0xbd, 0xa3, 0xfd, 0xef, 0x3d, 0x2d, 0x13, 0x9e, 0x3d, 0x16, 0x9b, 0x43, 0xbc, 0x12, 0xbc, 0x24, 0x3e, 0x61, 0xbf, 0x37, 0x3e, 0xac, 0xdc, 0x4c, 0x3e, 0x7c, 0x84, 0x22, 0xbd, 0x03, 0xfb, 0x5a, 0x3e, 0x3f, 0x8d, 0xa4, 0xbd, 0xd4, 0xf8, 0x4b, 0xbe, 0xe1, 0xb7, 0x68, 0x3e, 0xcd, 0xeb, 0x5e, 0x3e, 0x79, 0x17, 0x44, 0x3d, 0x17, 0xa0, 0x28, 0xbe, 0x22, 0x0f, 0x59, 0x3d, 0x09, 0xe4, 0x0b, 0xbd, 0x5c, 0x23, 0x75, 0xbe, 0x63, 0x51, 0x9f, 0xbd, 0xd2, 0x18, 0x8a, 0x3d, 0xc5, 0x40, 0xf9, 0x3c, 0x71, 0xcf, 0x0f, 0x3e, 0x0d, 0x5f, 0x74, 0x3e, 0x1a, 0x36, 0xf5, 0xbd, 0xb0, 0xdc, 0xd9, 0xba, 0xe6, 0x0d, 0xca, 0xbd, 0x1d, 0x41, 0x8b, 0x3c, 0x2e, 0xec, 0x23, 0xbe, 0x05, 0x5b, 0x4e, 0x3e, 0xad, 0xbf, 0x6e, 0x3e, 0x70, 0x11, 0x44, 0xbe, 0xca, 0xb9, 0x80, 0xbd, 0x38, 0x8c, 0x4f, 0xbd, 0x59, 0x3b, 0x8f, 0xbc, 0x68, 0x24, 0x5d, 0x3e, 0x01, 0x76, 0x30, 0xbd, 0x9c, 0x56, 0x19, 0xbe, 0x52, 0x04, 0x42, 0x3d, 0x36, 0x16, 0x05, 0x3e, 0x42, 0x63, 0x9b, 0x3d, 0xb6, 0x45, 0x75, 0x3c, 0x8a, 0xd0, 0xfc, 0xbc, 0xdc, 0xad, 0xd8, 0x3d, 0xaa, 0xa9, 0xa6, 0x3d, 0x96, 0xd6, 0x31, 0x3e, 0x35, 0x2e, 0x8b, 0x3d, 0xe0, 0x36, 0x57, 0x3e, 0xee, 0x0b, 0x33, 0x3e, 0x61, 0x38, 0xbb, 0xbd, 0x16, 0x97, 0xeb, 0xbd, 0x08, 0x34, 0x4f, 0xbd, 0x79, 0xdd, 0x69, 0x3e, 0x41, 0x6b, 0x76, 0xbd, 0xcf, 0x7a, 0x6d, 0xbe, 0xf7, 0x56, 0x77, 0x3e, 0x3b, 0x53, 0x4f, 0xbe, 0x34, 0x38, 0x21, 0xbe, 0xb0, 0x48, 0xaf, 0x3c, 0xed, 0xc5, 0x35, 0x3d, 0xc5, 0xb7, 0xbf, 0x3d, 0xd4, 0x3b, 0x30, 0x3e, 0xe7, 0xe7, 0x13, 0xbe, 0xf1, 0xf1, 0x16, 0x3e, 0x65, 0x35, 0x3a, 0xbe, 0x25, 0x90, 0x61, 0xbb, 0x51, 0x0c, 0x55, 0xbd, 0x50, 0x7f, 0x6b, 0x3e, 0x0e, 0x43, 0x58, 0xbe, 0x64, 0x1d, 0x4e, 0xbe, 0x4d, 0xb6, 0x63, 0x3e, 0xdc, 0xd8, 0x44, 0x3e, 0xfb, 0xc7, 0x52, 0xbe, 0xc9, 0x41, 0x6e, 0xbe, 0x71, 0x80, 0x48, 0x3e, 0xd0, 0x14, 0xf5, 0x3c, 0x44, 0xcd, 0x49, 0xbe, 0xe2, 0xcb, 0x72, 0x3d, 0x1a, 0xf7, 0xb3, 0xbc, 0xc8, 0x7c, 0xb8, 0xbd, 0xc0, 0x06, 0x89, 0x3c, 0xfb, 0x43, 0xd2, 0x3c, 0xb9, 0x82, 0x4a, 0x3d, 0x43, 0xd4, 0x8c, 0x3d, 0xc6, 0x1f, 0xbe, 0x3d, 0x1f, 0x69, 0x81, 0xbe, 0x30, 0xa6, 0x4a, 0x3e, 0x70, 0x2e, 0x78, 0x3e, 0x85, 0x29, 0x00, 0xbe, 0x99, 0xef, 0x2b, 0xbd, 0x32, 0xde, 0x2b, 0xbe, 0x01, 0x54, 0x48, 0xbe, 0xe2, 0x61, 0x56, 0xbc, 0xb2, 0xaf, 0x38, 0x3d, 0x54, 0x7b, 0xa5, 0xbd, 0xec, 0xfd, 0xf9, 0xbd, 0xef, 0xc2, 0x5a, 0xbe, 0x76, 0xdc, 0x53, 0x3e, 0xce, 0xe7, 0xca, 0xbd, 0xf4, 0xee, 0x3d, 0xbe, 0x58, 0x43, 0xaf, 0xbd, 0x35, 0xff, 0x79, 0xbe, 0xe3, 0xc9, 0x3b, 0x3e, 0x12, 0x80, 0xaa, 0x3d, 0x2d, 0xeb, 0x11, 0x3e, 0xf2, 0xd5, 0x20, 0xbe, 0xf9, 0xa4, 0xf7, 0x3d, 0x7a, 0x9e, 0x69, 0xbe, 0x23, 0x93, 0x43, 0xbc, 0xd4, 0x0f, 0x24, 0x3d, 0x7d, 0x3e, 0xa6, 0xbd, 0x60, 0xcc, 0x1c, 0xbd, 0x4b, 0xac, 0x52, 0xbe, 0x5b, 0xf1, 0x70, 0xbe, 0x07, 0x4e, 0x46, 0x3e, 0x39, 0xc0, 0x4e, 0xbe, 0xe6, 0x3d, 0xc8, 0x3d, 0xda, 0x08, 0x87, 0xbd, 0x45, 0xce, 0x18, 0xbe, 0x9b, 0xde, 0x8e, 0x3d, 0xe3, 0x61, 0xe9, 0x3d, 0x22, 0x92, 0xaa, 0xbc, 0xb1, 0x53, 0x42, 0x3e, 0x32, 0x3e, 0x10, 0xbd, 0xfe, 0x0a, 0x58, 0xbe, 0x59, 0x88, 0xd9, 0xbd, 0xe4, 0x20, 0xbb, 0xbd, 0x7d, 0x6d, 0x80, 0xbc, 0xe8, 0xb0, 0xbf, 0x3d, 0x9c, 0x99, 0x54, 0x3d, 0x99, 0x9d, 0x66, 0xbe, 0xe2, 0xc8, 0x47, 0x3d, 0x02, 0x44, 0x00, 0x3e, 0x7c, 0x8b, 0x56, 0xbe, 0xf7, 0x53, 0x62, 0x3e, 0x75, 0x95, 0x51, 0xbe, 0xe0, 0x20, 0x1c, 0x3e, 0x5d, 0x5f, 0x96, 0x3c, 0xcd, 0xee, 0xfe, 0xbd, 0x1a, 0xd4, 0xc5, 0xbd, 0x1d, 0x54, 0x1f, 0x3e, 0x93, 0x58, 0x9c, 0x3c, 0xd9, 0x6e, 0x72, 0x3d, 0xfb, 0x8e, 0xc1, 0x3c, 0x9e, 0x07, 0xb7, 0xbd, 0xa9, 0x3b, 0x03, 0x3e, 0xfa, 0x64, 0x3a, 0x3e, 0x83, 0x50, 0xbc, 0xbd, 0xca, 0x5b, 0x72, 0x3e, 0x19, 0x7e, 0x1b, 0xbc, 0x0a, 0x04, 0x5a, 0x3d, 0x04, 0xe4, 0x33, 0xbe, 0xb1, 0xd9, 0x3c, 0x3e, 0xe2, 0xf3, 0xdc, 0x3c, 0xee, 0xdb, 0x00, 0xbe, 0x68, 0x46, 0x56, 0xbe, 0xcb, 0x9d, 0xad, 0xbb, 0x76, 0x81, 0x2c, 0x3e, 0x9c, 0xd2, 0xdc, 0x3d, 0x89, 0x2e, 0x95, 0x3d, 0x89, 0x7a, 0x41, 0x3e, 0x6e, 0x78, 0xd7, 0x3d, 0x4c, 0xbf, 0x2f, 0x3e, 0xf7, 0x75, 0x34, 0x3e, 0x72, 0xba, 0x34, 0xbe, 0x89, 0x63, 0x4e, 0x3e, 0x5e, 0x85, 0x1e, 0xbe, 0x97, 0x21, 0x7b, 0x3e, 0xc1, 0xdc, 0x73, 0xbd, 0x41, 0x3f, 0x0c, 0x3d, 0xdf, 0xc4, 0xe8, 0x3d, 0x8a, 0xe1, 0x63, 0xbe, 0x92, 0x9f, 0xfd, 0xbd, 0xc7, 0x92, 0x87, 0x3d, 0x38, 0xb1, 0xc5, 0x3d, 0x23, 0x6b, 0xd9, 0x3d, 0x94, 0x1c, 0x97, 0xbd, 0x60, 0xc4, 0x82, 0x3e, 0xdb, 0x90, 0x2c, 0xbd, 0x45, 0xd2, 0x67, 0xbe, 0x5f, 0x14, 0x49, 0xbe, 0xc6, 0x23, 0x8c, 0x3d, 0xbc, 0xbc, 0x03, 0xbe, 0xaf, 0x44, 0xc1, 0x39, 0xd9, 0x99, 0x1f, 0xbe, 0x3f, 0x67, 0x0b, 0xbe, 0xcc, 0x70, 0xfc, 0xbd, 0xf9, 0x03, 0x70, 0xbe, 0x3d, 0x48, 0x78, 0xbe, 0x00, 0xf6, 0x8c, 0x3a, 0x1f, 0xa3, 0x52, 0xbe, 0x3c, 0x87, 0xc3, 0xbc, 0x00, 0xef, 0x5a, 0x3e, 0x44, 0xdf, 0x40, 0x3e, 0x43, 0x07, 0x26, 0xbe, 0x9e, 0x00, 0x6b, 0x3c, 0xa1, 0xcc, 0x97, 0xbd, 0x33, 0xae, 0xac, 0xbc, 0xe1, 0x05, 0x7f, 0xbc, 0x2a, 0xc7, 0xc7, 0xbc, 0x89, 0x26, 0x2e, 0x3e, 0x95, 0x4c, 0xda, 0x3d, 0x8d, 0x8e, 0x99, 0xbc, 0x95, 0x40, 0x79, 0x3e, 0x9f, 0x17, 0xf6, 0xbd, 0x70, 0xf4, 0x0d, 0x3e, 0x26, 0x95, 0x2b, 0xbe, 0xc9, 0x3f, 0xbe, 0xbd, 0xc6, 0x10, 0x2b, 0x3e, 0x93, 0x15, 0x00, 0xbd, 0x66, 0x00, 0xa7, 0x3c, 0x8b, 0xa7, 0xe6, 0xbc, 0x70, 0x47, 0x47, 0xbd, 0x25, 0x29, 0x67, 0x3d, 0xfc, 0x37, 0x0d, 0x3e, 0x2f, 0x67, 0x19, 0x3e, 0xc7, 0x1f, 0x1c, 0x3e, 0xb2, 0x13, 0x93, 0x3d, 0xab, 0xbf, 0x6c, 0xbe, 0xb3, 0xdd, 0xf0, 0xbd, 0x76, 0x6b, 0xbc, 0xbd, 0x19, 0x41, 0x33, 0xbe, 0x96, 0x3b, 0x52, 0x3c, 0x04, 0xe8, 0x47, 0x3e, 0x71, 0xd8, 0x1e, 0xbe, 0x0d, 0xcb, 0x41, 0xbd, 0x6e, 0x05, 0x44, 0x3e, 0x34, 0x1a, 0x49, 0xbe, 0xcc, 0xf7, 0x7b, 0x3d, 0xe6, 0x0a, 0x21, 0x3e, 0x86, 0xad, 0x8c, 0x3d, 0xd4, 0x0e, 0x57, 0xbd, 0xe2, 0x91, 0x61, 0x3d, 0x90, 0x92, 0x2b, 0x3e, 0xf6, 0xb9, 0x81, 0x3d, 0x71, 0x3f, 0x8c, 0xbc, 0xea, 0x16, 0xeb, 0x3b, 0x91, 0x08, 0x21, 0xbe, 0x40, 0x92, 0xc6, 0x3d, 0x78, 0x6e, 0x7c, 0x3e, 0x6d, 0xac, 0x4f, 0xbe, 0x50, 0x12, 0x55, 0x3c, 0xb9, 0xf2, 0x18, 0xbe, 0xa3, 0xb9, 0xbd, 0xba, 0xb7, 0xab, 0x09, 0x3e, 0x1b, 0x61, 0x71, 0x3e, 0x89, 0x81, 0x82, 0xbd, 0xf6, 0x64, 0x43, 0xbe, 0xe6, 0xe5, 0x60, 0x3e, 0x8c, 0x3c, 0x8d, 0x3d, 0xb3, 0x21, 0x25, 0xbe, 0x84, 0x65, 0xb1, 0xbd, 0x68, 0x36, 0x38, 0x3e, 0xd6, 0xb3, 0x0d, 0xbe, 0xbd, 0x6a, 0x12, 0x3e, 0x4f, 0xc1, 0x03, 0xbe, 0x20, 0xfa, 0xfa, 0x3d, 0x19, 0xa4, 0x2b, 0x3e, 0x99, 0x4f, 0x4f, 0x3e, 0x13, 0xa7, 0xc7, 0x3b, 0xed, 0x8a, 0xe8, 0xbd, 0x70, 0xc7, 0x46, 0xbe, 0x08, 0x65, 0xad, 0x3d, 0x7f, 0x0e, 0x3e, 0x3c, 0xd0, 0x44, 0x32, 0x3e, 0xd9, 0x7a, 0x8f, 0xbd, 0x7f, 0x08, 0xa3, 0x3d, 0x8b, 0x7a, 0x48, 0xbe, 0x60, 0xe3, 0x06, 0x3e, 0xbc, 0xf9, 0x06, 0xbe, 0xd4, 0x70, 0x1a, 0xbe, 0x2a, 0x7f, 0x70, 0xbe, 0xc9, 0x49, 0x12, 0xbe, 0xd0, 0xc1, 0x44, 0xbc, 0x6a, 0x6c, 0x28, 0x3e, 0xdf, 0x8f, 0x03, 0xbe, 0x8a, 0x3d, 0x27, 0x3e, 0x08, 0xec, 0x77, 0x3e, 0x1e, 0x36, 0x07, 0x3c, 0x36, 0x98, 0x84, 0xbd, 0x38, 0x13, 0x85, 0xbb, 0xdb, 0x45, 0x1d, 0xbe, 0x97, 0xf1, 0xaf, 0xbc, 0x1b, 0x9f, 0x75, 0x3c, 0x5c, 0x72, 0x2b, 0xbe, 0xb2, 0xeb, 0x45, 0x3e, 0x3f, 0x64, 0x6a, 0x3e, 0x0c, 0xb9, 0x0f, 0xbd, 0x65, 0x3a, 0x6b, 0x3e, 0xa2, 0xd0, 0x3e, 0xbe, 0xe7, 0xd1, 0x3d, 0xbe, 0x8f, 0x75, 0x25, 0x3e, 0xd2, 0xaf, 0x15, 0x3e, 0xe9, 0x24, 0x6e, 0x3e, 0x7b, 0x95, 0xa8, 0xbd, 0xdf, 0xf7, 0x4b, 0x3d, 0xc4, 0xc3, 0x86, 0x3b, 0xac, 0x31, 0xfa, 0xbd, 0xa5, 0xf8, 0x20, 0xbe, 0x5e, 0xdf, 0xd2, 0x3d, 0xe6, 0x5c, 0x75, 0x3e, 0xf9, 0x0d, 0x6c, 0xbe, 0x0c, 0x7f, 0x4e, 0x3e, 0x71, 0x7f, 0x05, 0x3d, 0x26, 0x2a, 0xba, 0x3d, 0xca, 0xfa, 0x07, 0xbe, 0xc6, 0x05, 0xc1, 0x3d, 0x07, 0xbf, 0x94, 0x3d, 0x3c, 0x03, 0x81, 0x3e, 0x44, 0x27, 0x16, 0xbd, 0xe3, 0xcc, 0x40, 0xbe, 0x0b, 0xb6, 0x3d, 0xbe, 0x56, 0x97, 0xdf, 0x3c, 0x7d, 0x47, 0x16, 0x3e, 0x15, 0x36, 0x51, 0x3e, 0x26, 0xa5, 0x72, 0xbe, 0xfc, 0xe5, 0x36, 0xbe, 0x6f, 0xec, 0xc0, 0xbb, 0x86, 0x80, 0x06, 0xbd, 0x2c, 0x1f, 0x22, 0x3e, 0xef, 0xdb, 0x9a, 0x3d, 0xd9, 0x87, 0x50, 0x3e, 0x83, 0xdb, 0x56, 0xbe, 0x56, 0xe5, 0xd9, 0xbd, 0xe1, 0xd7, 0xc8, 0x3d, 0x3d, 0xcb, 0xbf, 0x3d, 0x30, 0xc8, 0x19, 0xbe, 0x36, 0x14, 0x76, 0xbd, 0x0b, 0x8b, 0xfd, 0x3d, 0x99, 0xe7, 0x25, 0xbe, 0x0f, 0xf2, 0xb3, 0x3d, 0x35, 0x16, 0x07, 0xbe, 0xec, 0xe5, 0x0b, 0x3e, 0x09, 0x39, 0x58, 0xbe, 0xb6, 0x1d, 0x3b, 0xbd, 0x87, 0x0a, 0x9f, 0xbc, 0xbf, 0x37, 0x9d, 0x3d, 0x54, 0x43, 0x80, 0x3e, 0xba, 0xe3, 0x77, 0x3e, 0xbb, 0xc9, 0x4f, 0x3e, 0x40, 0x45, 0x52, 0x3b, 0xbb, 0xc6, 0xff, 0xbd, 0x28, 0xcb, 0x77, 0x3e, 0xb5, 0x5a, 0xab, 0x3d, 0x5a, 0x63, 0xe3, 0x3d, 0x26, 0xa2, 0xa4, 0x3d, 0x9f, 0x57, 0xf3, 0x3d, 0xe8, 0xa6, 0xb8, 0xbd, 0x7c, 0xa5, 0x10, 0xbe, 0x6f, 0x73, 0x6e, 0x3b, 0x4a, 0x3f, 0xdf, 0xbd, 0xa8, 0xde, 0x04, 0xbe, 0xf9, 0x0b, 0xe1, 0xbd, 0xf6, 0x13, 0xca, 0xbd, 0x0f, 0x24, 0x26, 0x3d, 0x3c, 0x33, 0xeb, 0x3d, 0xb5, 0x2d, 0x5c, 0xbe, 0xcb, 0xe0, 0x2c, 0x3e, 0xd6, 0xfc, 0xb5, 0x3d, 0x86, 0x7b, 0x78, 0x3e, 0xc5, 0x1d, 0x2c, 0x3d, 0xb5, 0x77, 0x77, 0x3b, 0x17, 0xc2, 0xba, 0xbd, 0x8f, 0x20, 0xd6, 0xbc, 0xb9, 0xe3, 0x2e, 0xbd, 0x39, 0x7e, 0x98, 0xbd, 0x5c, 0x8c, 0xe3, 0xbd, 0x0b, 0x5e, 0x00, 0x3e, 0x03, 0x89, 0x37, 0xbe, 0x22, 0xd2, 0x62, 0x3e, 0xef, 0x37, 0x80, 0x3e, 0x2b, 0x03, 0x58, 0x3e, 0xbf, 0x30, 0x06, 0xbd, 0xe7, 0x02, 0x08, 0xbd, 0x8c, 0xac, 0x16, 0x3e, 0x1a, 0xa4, 0x52, 0xbe, 0xe4, 0xd2, 0x51, 0xbe, 0xc8, 0xb3, 0x48, 0xbe, 0x37, 0x20, 0xb4, 0x3a, 0x69, 0x38, 0x95, 0x3d, 0x32, 0x1f, 0x49, 0x3e, 0xca, 0x5b, 0x35, 0xbe, 0x32, 0xa7, 0xb2, 0x3d, 0xd5, 0x6a, 0xf2, 0xbd, 0x4d, 0xc0, 0xba, 0xbc, 0x77, 0xa2, 0x03, 0xbe, 0x3b, 0x56, 0x5a, 0xbe, 0x1c, 0x09, 0x04, 0x3c, 0xc6, 0xc0, 0xb6, 0x3c, 0x0f, 0x6f, 0x3b, 0x3e, 0x7b, 0x05, 0x33, 0x3d, 0x90, 0x76, 0x43, 0xbe, 0xe3, 0x96, 0x0f, 0x3e, 0xbe, 0xc1, 0x76, 0xbe, 0x17, 0x3a, 0x77, 0xbe, 0x26, 0x93, 0xde, 0x3d, 0x32, 0x68, 0x37, 0x3e, 0x2e, 0x7d, 0x3d, 0xbe, 0x4d, 0xd5, 0xad, 0x3d, 0xe9, 0x1d, 0xfe, 0x3c, 0xb6, 0x61, 0x1e, 0xbe, 0xce, 0x25, 0x87, 0xbd, 0x46, 0xf5, 0x08, 0xbe, 0xb5, 0x06, 0x63, 0x3e, 0x7d, 0x80, 0xb5, 0xbd, 0x4c, 0xaa, 0x26, 0x3e, 0x29, 0xc3, 0x77, 0xbc, 0xc6, 0xe6, 0x5a, 0xbd, 0x4a, 0xfa, 0x42, 0x3e, 0x0a, 0xaf, 0x62, 0xbe, 0x12, 0xd4, 0x8d, 0xbd, 0xaf, 0xf9, 0xd9, 0x3c, 0x93, 0x52, 0xac, 0x3b, 0xa9, 0x20, 0xf7, 0x3d, 0x8b, 0xc5, 0x32, 0x3e, 0x0e, 0x60, 0x77, 0xbd, 0x61, 0xea, 0x13, 0x3c, 0x8d, 0x8b, 0x7f, 0xbd, 0x27, 0x1f, 0x9f, 0xba, 0x82, 0x42, 0x12, 0xbe, 0x61, 0x47, 0x0d, 0xbe, 0x37, 0x68, 0x69, 0xbd, 0x26, 0x1f, 0x35, 0xbe, 0x46, 0xec, 0x8f, 0x3d, 0x7c, 0x8c, 0x81, 0x3d, 0x0a, 0x0b, 0xa4, 0xbd, 0x2f, 0x7b, 0x4b, 0x3e, 0x83, 0x3d, 0x5b, 0x3c, 0xba, 0x21, 0x6a, 0x3e, 0xc4, 0xb3, 0xd9, 0x3d, 0x09, 0x4c, 0x6f, 0xbe, 0x24, 0xcf, 0x6a, 0x3e, 0x77, 0xa0, 0x72, 0xbe, 0xcf, 0x29, 0x85, 0x3d, 0xa1, 0x1e, 0x06, 0x3e, 0x72, 0x84, 0x97, 0x3b, 0x96, 0x2e, 0xec, 0xbd, 0x24, 0x51, 0x1c, 0xbe, 0x1e, 0x1a, 0xea, 0x3d, 0xa5, 0xbd, 0x44, 0x3e, 0x1c, 0xa0, 0x71, 0x3e, 0x84, 0x60, 0x16, 0x3e, 0x04, 0x42, 0x5c, 0x3e, 0x3f, 0xae, 0x34, 0x3e, 0xd4, 0x80, 0x61, 0x3e, 0x88, 0x8e, 0xcc, 0x3c, 0x89, 0xad, 0x3b, 0x3e, 0xe2, 0xa5, 0x1a, 0xbe, 0x49, 0x2d, 0xfe, 0xbb, 0x2d, 0x1e, 0xf7, 0x3d, 0x7b, 0x2b, 0x61, 0x3e, 0x05, 0xcb, 0x25, 0xbe, 0xfe, 0x50, 0x8f, 0xbd, 0xe0, 0x48, 0xd2, 0x3d, 0x80, 0x2c, 0x59, 0xbd, 0x0c, 0xef, 0x79, 0x3e, 0x04, 0x51, 0xdb, 0x3d, 0x50, 0xc2, 0x11, 0xbe, 0x87, 0x70, 0x3e, 0x3e, 0xe7, 0x36, 0x3b, 0xbe, 0x14, 0x61, 0xb0, 0x3d, 0x67, 0x5c, 0xb5, 0x3d, 0x38, 0x37, 0x0c, 0xbd, 0xc1, 0x50, 0x71, 0x3e, 0xb5, 0x8f, 0xde, 0xbd, 0xc7, 0x39, 0xd4, 0x3d, 0xdc, 0x5d, 0xc5, 0x3c, 0xce, 0x78, 0xa3, 0x3d, 0x33, 0x93, 0x16, 0xbe, 0xd4, 0x27, 0x56, 0x3e, 0xd5, 0xbf, 0x8b, 0xbd, 0x31, 0x15, 0x0f, 0xbe, 0x4a, 0x30, 0x58, 0x3e, 0x6a, 0x84, 0x70, 0xbe, 0x03, 0x10, 0x34, 0xbb, 0x4f, 0x5b, 0x9b, 0x3d, 0x11, 0x2e, 0xfc, 0xbd, 0x72, 0x7b, 0x3e, 0xbe, 0xed, 0x12, 0x24, 0x3e, 0x8d, 0x7e, 0x3c, 0xbe, 0x90, 0x65, 0x0c, 0xbe, 0x97, 0x20, 0x82, 0x3e, 0xc8, 0x9b, 0x58, 0xbe, 0xbc, 0x86, 0x9e, 0x3d, 0x75, 0x5e, 0x46, 0xbe, 0xc8, 0x2f, 0x1e, 0xbd, 0x6d, 0x0b, 0x7b, 0x3d, 0x23, 0x3b, 0x58, 0x3d, 0x05, 0x55, 0xc8, 0xbd, 0xd0, 0x2e, 0xfe, 0xbd, 0x74, 0xa0, 0xb3, 0xbd, 0xc4, 0x95, 0xac, 0x3d, 0x28, 0x98, 0x1e, 0x3e, 0x2b, 0x86, 0x0f, 0x3e, 0x4e, 0xb0, 0x09, 0x3e, 0x52, 0x42, 0x3b, 0x3d, 0x5e, 0xf4, 0x8a, 0x3d, 0x66, 0xa1, 0xc3, 0x3d, 0x78, 0x97, 0x43, 0xbe, 0xdf, 0x2f, 0xa3, 0xbd, 0x8c, 0xbf, 0xc1, 0xbd, 0x0c, 0x25, 0x3e, 0xbe, 0xc6, 0x64, 0x6f, 0x3e, 0x7f, 0x09, 0x45, 0x3e, 0xfc, 0xdd, 0x70, 0x3d, 0xc7, 0xa7, 0x41, 0xbe, 0xdb, 0x27, 0x57, 0x3e, 0x2b, 0xb4, 0x9c, 0xbd, 0xeb, 0x21, 0xca, 0xbd, 0xf2, 0x5e, 0xcc, 0xbc, 0x4a, 0xb0, 0xfe, 0xbc, 0x2b, 0x32, 0x71, 0xbe, 0x29, 0x4a, 0x80, 0x3d, 0x80, 0x51, 0x43, 0xbe, 0x70, 0x83, 0xa6, 0x3d, 0x2a, 0xba, 0xf6, 0xbd, 0xc5, 0x14, 0x2e, 0xbd, 0x43, 0x6b, 0x09, 0x3e, 0xe7, 0x11, 0x2a, 0xbb, 0x31, 0x86, 0x34, 0x3e, 0xf9, 0xa0, 0x26, 0x3d, 0x43, 0x70, 0xb0, 0xbd, 0x8f, 0xa7, 0x3b, 0xbe, 0x6f, 0x61, 0x75, 0x3e, 0x95, 0x01, 0x0c, 0x3e, 0xa0, 0x88, 0xf1, 0xbb, 0x50, 0xb8, 0x1e, 0xbd, 0x42, 0x1f, 0x72, 0xbd, 0xbf, 0xdf, 0x3e, 0x3e, 0xff, 0x90, 0x2c, 0x3e, 0x09, 0xc3, 0x02, 0xbe, 0x0b, 0x3c, 0x4d, 0xbe, 0x1e, 0x30, 0x78, 0x3e, 0xf6, 0x44, 0xe9, 0x3d, 0xc1, 0xa0, 0x28, 0xbe, 0x4e, 0x67, 0xc7, 0xbc, 0xd1, 0x8f, 0x1b, 0x3e, 0x33, 0x24, 0x48, 0x3e, 0x26, 0xe6, 0xc4, 0xbd, 0x80, 0x1c, 0x2f, 0xbd, 0x50, 0x73, 0x7c, 0xbe, 0x6b, 0x3a, 0x23, 0xbe, 0x4c, 0x73, 0x6d, 0xbe, 0xd9, 0x38, 0x81, 0xbe, 0x78, 0x35, 0xb1, 0x3c, 0xc9, 0x28, 0xe3, 0xbd, 0xd2, 0x81, 0xce, 0x3d, 0x9e, 0xa7, 0x94, 0xbd, 0x36, 0xf9, 0x70, 0xbe, 0x45, 0xfe, 0x52, 0x3d, 0x92, 0xda, 0x2a, 0x3e, 0xa2, 0x8e, 0x68, 0xbe, 0x20, 0x39, 0xf6, 0xbd, 0xbd, 0xe6, 0x35, 0xbe, 0x26, 0xa7, 0x44, 0x3d, 0x15, 0x16, 0x43, 0x3e, 0x98, 0xa8, 0x55, 0x3e, 0x84, 0x30, 0x6a, 0xbd, 0x96, 0x07, 0x82, 0xbe, 0xb5, 0xc3, 0x84, 0x3b, 0x79, 0x13, 0x1d, 0x3e, 0x68, 0xf0, 0x11, 0xbe, 0x9f, 0x0e, 0xd0, 0x3c, 0x32, 0xfa, 0xb8, 0xbd, 0xc9, 0xef, 0xdb, 0x3d, 0x8c, 0xdb, 0x0c, 0xbe, 0x80, 0x36, 0xdf, 0x3b, 0x74, 0xd0, 0x61, 0x3e, 0xed, 0x7e, 0xe7, 0x3d, 0xda, 0xc3, 0x7b, 0x3e, 0x12, 0x05, 0x6f, 0xbe, 0x01, 0xf8, 0xc9, 0xbd, 0x38, 0xcb, 0xaf, 0x3d, 0xe8, 0x1d, 0xea, 0xbd, 0xf8, 0xb5, 0x8c, 0xbd, 0x05, 0x8c, 0x29, 0xbd, 0x1b, 0x4c, 0x8a, 0x3d, 0xea, 0x42, 0x9e, 0xbc, 0xe0, 0xe9, 0xd0, 0x3d, 0x48, 0xad, 0xf6, 0xbd, 0x10, 0xe1, 0x6a, 0xbe, 0x20, 0xe6, 0x19, 0x3e, 0x00, 0x4a, 0xed, 0xbb, 0x80, 0xcd, 0x17, 0xbe, 0x97, 0x80, 0xf7, 0x3d, 0x1b, 0xed, 0x12, 0x3c, 0xa3, 0xdf, 0x92, 0x3d, 0x22, 0x65, 0xa6, 0xbd, 0x3b, 0xa2, 0x74, 0xbe, 0xca, 0x86, 0x44, 0x3e, 0xd2, 0xaa, 0x0a, 0x3d, 0x74, 0x42, 0x4e, 0xbe, 0x23, 0x87, 0x72, 0xbe, 0xf0, 0xdd, 0x88, 0x3d, 0xe0, 0xee, 0xf9, 0xbd, 0x2d, 0x6b, 0xe6, 0x3d, 0x50, 0x2b, 0x45, 0xbd, 0x07, 0x3e, 0x8c, 0x3c, 0x38, 0x7a, 0x0f, 0xbe, 0x0d, 0x47, 0x38, 0xbd, 0x0c, 0x2e, 0x4e, 0x3c, 0x84, 0xa9, 0x6c, 0xbe, 0x50, 0x92, 0x0e, 0x3d, 0x30, 0xec, 0x0e, 0xbd, 0xa0, 0x9d, 0x19, 0x3e, 0x40, 0x7d, 0x75, 0x3c, 0x5a, 0x3d, 0x70, 0xbe, 0x38, 0xf7, 0x04, 0xbe, 0x50, 0x1c, 0x19, 0x3e, 0x0e, 0xe4, 0xcf, 0xbc, 0xfe, 0xfb, 0x82, 0x3d, 0xe0, 0xdc, 0x6f, 0xbd, 0x09, 0x0e, 0x38, 0xbe, 0x3f, 0x7e, 0xe6, 0xbd, 0xa7, 0x5a, 0x1d, 0x3e, 0x53, 0x8a, 0x2b, 0xbe, 0xd3, 0x45, 0x30, 0x3e, 0x7e, 0x4e, 0x6d, 0x3e, 0x42, 0x0d, 0x12, 0xbe, 0xc3, 0x7e, 0x3f, 0x3e, 0x04, 0xc9, 0x5d, 0x3e, 0x9c, 0x92, 0x0e, 0x3e, 0xd4, 0xd1, 0x18, 0xbe, 0x70, 0x5e, 0xbe, 0xbd, 0xe0, 0x60, 0x15, 0xbd, 0xf0, 0x21, 0x64, 0xbe, 0x48, 0x85, 0x14, 0xbe, 0x48, 0xf6, 0x95, 0x3d, 0x3d, 0x38, 0x1c, 0x3e, 0xbc, 0xe4, 0x74, 0xbe, 0xf1, 0xfb, 0x2f, 0xbe, 0x11, 0x32, 0xd5, 0xbd, 0x10, 0xb1, 0x04, 0xbe, 0x7c, 0x89, 0x4d, 0xbe, 0xd7, 0x6e, 0xc6, 0x3d, 0x01, 0xb0, 0x36, 0x3e, 0xa0, 0x82, 0xfc, 0xbc, 0x4b, 0xab, 0xb6, 0x3d, 0x8e, 0xe4, 0x6d, 0xbe, 0xc0, 0x63, 0xea, 0xbd, 0xb7, 0x93, 0xfc, 0x3d, 0xe3, 0xb8, 0x02, 0xbe, 0x10, 0xda, 0x68, 0x3d, 0x86, 0x19, 0x2c, 0x3d, 0xa5, 0xc9, 0x0c, 0x3e, 0xf5, 0xbd, 0x24, 0xbe, 0xa1, 0xd6, 0xc9, 0x3d, 0xeb, 0x93, 0x3f, 0xbe, 0x63, 0x48, 0x33, 0x3d, 0x35, 0xf7, 0xf0, 0xbd, 0x5d, 0xd7, 0x3d, 0xbe, 0x61, 0xab, 0x30, 0x3e, 0x62, 0xb5, 0xe9, 0x3d, 0x02, 0x8c, 0x58, 0x3e, 0xb0, 0x33, 0xcf, 0xbc, 0x95, 0xb0, 0x5a, 0xbe, 0x72, 0xb9, 0xd2, 0xbd, 0x73, 0xc3, 0xf0, 0x3d, 0x15, 0x4f, 0x03, 0x3e, 0x53, 0x50, 0x7f, 0xbd, 0x69, 0xf2, 0x43, 0x3c, 0x87, 0x3c, 0x48, 0x3e, 0x55, 0x65, 0xcc, 0x3c, 0xf8, 0x67, 0x69, 0xbe, 0x0d, 0x43, 0xb2, 0x3c, 0x3c, 0x5c, 0x4d, 0xbe, 0x14, 0x54, 0x85, 0x3d, 0x4d, 0x22, 0x1f, 0x3d, 0xdb, 0xdd, 0x4d, 0x3e, 0x98, 0x2c, 0x3a, 0xbd, 0x33, 0x7e, 0x4c, 0xbe, 0x1d, 0x87, 0xd9, 0x3d, 0xb0, 0x88, 0x82, 0x3c, 0xc8, 0x77, 0xb1, 0xbd, 0x5a, 0xe9, 0x7f, 0xbe, 0x20, 0x49, 0x83, 0x3d, 0xef, 0x59, 0x06, 0xbe, 0x84, 0xa6, 0xe8, 0x3d, 0x1e, 0xaa, 0x28, 0xbe, 0xe8, 0xd4, 0x15, 0x3e, 0xf3, 0x03, 0x02, 0xbe, 0xac, 0x95, 0x6b, 0x3e, 0x12, 0x57, 0xf3, 0xbd, 0x6a, 0xa5, 0x52, 0xbc, 0xbf, 0x0a, 0x09, 0x3d, 0x31, 0xb4, 0x09, 0xbe, 0x04, 0x59, 0x4b, 0x3c, 0x9c, 0x8c, 0x74, 0x3e, 0xa4, 0xe6, 0x49, 0xbd, 0xd7, 0xce, 0x3b, 0xbd, 0xbf, 0x1c, 0xc5, 0x3d, 0x6a, 0x3d, 0x7e, 0x3d, 0xe2, 0xba, 0x41, 0x3e, 0xb0, 0x72, 0x72, 0x3d, 0x87, 0xbf, 0x87, 0x3d, 0x1f, 0x6c, 0x34, 0x3e, 0x75, 0x34, 0xa7, 0xbc, 0xde, 0xf3, 0x00, 0x3a, 0x40, 0x71, 0x16, 0xbe, 0xf0, 0x20, 0x4e, 0xbe, 0xb0, 0x36, 0x2a, 0x3c, 0x7f, 0x33, 0xb7, 0xbd, 0x40, 0x11, 0x08, 0x3d, 0xc0, 0xcf, 0x73, 0xbd, 0xb9, 0xc7, 0x03, 0x3e, 0x17, 0xce, 0xdb, 0xbd, 0x31, 0x37, 0x99, 0x3d, 0x28, 0x9b, 0x94, 0x3d, 0xcc, 0x67, 0x24, 0xbe, 0x04, 0xdf, 0xe2, 0x3d, 0xa1, 0xfc, 0xce, 0xbd, 0x7b, 0x73, 0x62, 0x3e, 0x2d, 0xdb, 0xd5, 0xbc, 0x28, 0x31, 0x5e, 0x3e, 0xe8, 0x84, 0x08, 0xbe, 0xd6, 0x89, 0xb8, 0x3c, 0x80, 0xa3, 0xa2, 0xbd, 0x6e, 0x57, 0x5b, 0x3c, 0x24, 0xbb, 0x6d, 0xbe, 0xcb, 0xd3, 0x5e, 0xbd, 0x28, 0x83, 0x92, 0xbb, 0x42, 0xca, 0x46, 0xbe, 0x83, 0x70, 0x2a, 0xbd, 0xc2, 0xc8, 0xf6, 0xbd, 0x57, 0x3e, 0xd7, 0x3d, 0xe6, 0xf8, 0xca, 0x3d, 0xd9, 0x7a, 0xce, 0x3d, 0x6f, 0xb8, 0x44, 0xbe, 0x61, 0x44, 0x62, 0x3e, 0xf9, 0xfe, 0xa5, 0xbd, 0x7e, 0x06, 0xe7, 0xbd, 0x68, 0xaa, 0x67, 0x3e, 0x7f, 0xee, 0x38, 0xbe, 0x0a, 0x66, 0x40, 0x3e, 0x3a, 0x9b, 0x33, 0x3e, 0xf4, 0xdd, 0x8f, 0xbc, 0x94, 0x34, 0x01, 0xbe, 0x55, 0x51, 0x83, 0xbb, 0xc4, 0x05, 0x81, 0x3e, 0x94, 0x2d, 0x41, 0x3e, 0xeb, 0x9c, 0x32, 0xbe, 0xef, 0x51, 0xa4, 0x3d, 0xed, 0x02, 0x3d, 0xbe, 0xc0, 0x18, 0x35, 0xbe, 0xad, 0x1f, 0x22, 0xbe, 0xd9, 0x80, 0xf4, 0x3d, 0xad, 0x38, 0x17, 0xbe, 0xbc, 0xb0, 0x0f, 0xbc, 0x57, 0xf3, 0xd1, 0x3d, 0x94, 0x24, 0x86, 0xbd, 0xee, 0xfa, 0x5b, 0x3e, 0xab, 0x27, 0xf3, 0x3d, 0xb2, 0x02, 0x44, 0xbe, 0x01, 0x52, 0x57, 0x3e, 0x5a, 0xa4, 0x50, 0x3c, 0x50, 0xe2, 0x15, 0xbd, 0x35, 0xb7, 0x98, 0x3d, 0xd4, 0x4f, 0x79, 0xbe, 0x48, 0xbf, 0xc3, 0x3c, 0x01, 0x5b, 0x02, 0x3e, 0xc0, 0xc5, 0x6f, 0xbe, 0x58, 0x37, 0x8f, 0xbc, 0xf6, 0x51, 0x0d, 0xbe, 0x12, 0xcb, 0xba, 0xbb, 0x8f, 0x4e, 0x24, 0xbe, 0xc1, 0x75, 0x30, 0x3e, 0xf4, 0x87, 0x40, 0x3c, 0xf7, 0x4a, 0x2c, 0xbe, 0x61, 0xa5, 0x54, 0xbe, 0x8c, 0x11, 0x38, 0x3e, 0x6a, 0x05, 0x2c, 0xbe, 0xda, 0x68, 0x80, 0xbd, 0xc6, 0xcb, 0x29, 0x3e, 0x6c, 0x1e, 0x69, 0x3e, 0x7d, 0x31, 0xca, 0x3c, 0xfb, 0xa7, 0x20, 0x3d, 0x0c, 0x2d, 0x26, 0x3e, 0xa6, 0xb8, 0x50, 0xbc, 0x54, 0x90, 0x1e, 0xbe, 0xb2, 0x1f, 0x7a, 0x3e, 0xc6, 0x9b, 0xc7, 0x3c, 0x3d, 0xfb, 0xf1, 0x3c, 0x1a, 0x3b, 0xff, 0x3d, 0x0d, 0x1b, 0xa1, 0xbd, 0xf0, 0x45, 0xf3, 0xbd, 0x73, 0xac, 0x41, 0x3e, 0xe3, 0x35, 0xad, 0xbd, 0xaf, 0xb0, 0x04, 0x3e, 0x10, 0x30, 0x3c, 0xbe, 0x10, 0x34, 0x71, 0x3d, 0x96, 0xd4, 0x4d, 0x3e, 0x55, 0xd6, 0x99, 0xbc, 0x28, 0x69, 0xaa, 0x3d, 0xd2, 0xa2, 0x6b, 0xbe, 0x20, 0xb7, 0x62, 0xbe, 0x32, 0x80, 0x3e, 0x3e, 0x78, 0x14, 0x68, 0x3e, 0x43, 0x1c, 0x66, 0x3e, 0x55, 0x15, 0xde, 0xbc, 0x20, 0x8a, 0x70, 0x3e, 0x77, 0xcb, 0x04, 0x3d, 0x44, 0x65, 0x02, 0xbe, 0x32, 0x76, 0xa0, 0xbb, 0xea, 0xce, 0x23, 0xbd, 0xf2, 0x51, 0x40, 0x3e, 0x11, 0xbd, 0x98, 0xbd, 0x50, 0xff, 0x27, 0xbd, 0xac, 0x6b, 0xca, 0xbd, 0xfc, 0x1f, 0x90, 0x3d, 0x03, 0xad, 0x4b, 0x3e, 0x98, 0x8b, 0x27, 0x3c, 0x93, 0xa4, 0x6c, 0xbd, 0x63, 0xae, 0xa4, 0x3d, 0x81, 0xa4, 0x0f, 0xbd, 0x78, 0x1e, 0x33, 0xbd, 0x90, 0x43, 0x63, 0x3e, 0xb7, 0x02, 0x1f, 0x3e, 0xcc, 0x72, 0xe3, 0x3d, 0x02, 0x10, 0xf9, 0xbd, 0xf6, 0x94, 0x13, 0xbb, 0x35, 0x10, 0xb0, 0x3c, 0xa0, 0xb8, 0x4b, 0x3d, 0x95, 0x73, 0x4d, 0x3e, 0x08, 0x11, 0x33, 0xbe, 0x18, 0xde, 0x64, 0x3d, 0x68, 0x26, 0x7e, 0x3e, 0xf4, 0xdd, 0x26, 0xbe, 0xd0, 0xa3, 0xeb, 0xbd, 0x9a, 0x28, 0x6f, 0x3e, 0xb0, 0x95, 0x08, 0xbe, 0x9b, 0x2c, 0x1b, 0x3d, 0xd0, 0xca, 0x64, 0xbe, 0x83, 0x07, 0x22, 0xbe, 0x68, 0xba, 0x9a, 0x3d, 0x3d, 0x78, 0x0e, 0x3d, 0xe8, 0xe6, 0x6a, 0x3d, 0xb2, 0x02, 0x82, 0xbd, 0xb3, 0xa4, 0x60, 0xbe, 0x7a, 0x1a, 0x8e, 0xbd, 0x95, 0x0d, 0x6d, 0x3e, 0x32, 0xf7, 0xa8, 0x3a, 0x0d, 0xec, 0xfb, 0xbd, 0x8b, 0x20, 0x11, 0xbd, 0x54, 0xe8, 0x18, 0xbd, 0xe4, 0x52, 0x62, 0xbe, 0xc8, 0x3d, 0x20, 0xbe, 0x08, 0x1f, 0x6e, 0x3e, 0xc9, 0x31, 0x03, 0xbd, 0x95, 0x89, 0x79, 0xbe, 0x29, 0x5f, 0x28, 0xbe, 0xc7, 0xfe, 0x2f, 0x3e, 0x5e, 0xda, 0x39, 0xbe, 0xc5, 0xb5, 0x15, 0x3e, 0x56, 0xa8, 0x1f, 0x3d, 0xee, 0x9e, 0xcf, 0xbc, 0x9d, 0x48, 0xab, 0xbc, 0xa0, 0xf3, 0xf2, 0xbd, 0x84, 0xe9, 0x6c, 0x3e, 0x8e, 0x0c, 0x56, 0xbe, 0x0b, 0x73, 0x24, 0xbe, 0x27, 0x0d, 0x35, 0x3e, 0x2c, 0x37, 0x39, 0x3e, 0x72, 0x7a, 0x87, 0x3c, 0xc2, 0x47, 0x46, 0xbe, 0x2f, 0xbe, 0x9c, 0x3b, 0x40, 0x02, 0x47, 0xbd, 0xc9, 0xeb, 0x5d, 0xbe, 0x28, 0x29, 0x41, 0xbe, 0x4d, 0xb0, 0x00, 0x3e, 0xc3, 0xa3, 0x11, 0xbe, 0xf3, 0xf7, 0x6e, 0x3e, 0x01, 0xb0, 0x6c, 0x3e, 0xd1, 0xae, 0x36, 0x3e, 0x2f, 0x1c, 0xa2, 0x3d, 0x92, 0x3b, 0x63, 0x3e, 0x17, 0xb6, 0x9e, 0xbd, 0xb0, 0x00, 0x2b, 0x3d, 0xeb, 0xdd, 0x0a, 0xbe, 0xa4, 0xe7, 0x28, 0x3e, 0x3a, 0x19, 0x36, 0x3e, 0x4d, 0xf1, 0xc1, 0xbc, 0xfb, 0x65, 0x4b, 0xbd, 0xc2, 0x1d, 0x2e, 0x3e, 0xa4, 0x05, 0x4a, 0xbe, 0xb3, 0xb0, 0xd9, 0x3d, 0xc5, 0xa2, 0x73, 0xbe, 0xa6, 0x3a, 0x26, 0x3e, 0xd2, 0x5a, 0x89, 0x3d, 0xcf, 0xea, 0x0d, 0x3e, 0x34, 0x1c, 0x2d, 0x3e, 0xf6, 0x73, 0x09, 0x3e, 0x66, 0xc3, 0x8e, 0x3d, 0x3e, 0x93, 0x72, 0x3d, 0xb3, 0x4f, 0xaa, 0xbd, 0x39, 0xde, 0xf1, 0x3d, 0x07, 0x63, 0x86, 0x3d, 0xd7, 0x67, 0x82, 0x3d, 0xf9, 0x24, 0x13, 0x3e, 0x89, 0x0d, 0xeb, 0xbd, 0x04, 0xf1, 0x6c, 0xbe, 0xe5, 0x76, 0x81, 0x3e, 0x31, 0xe8, 0x4c, 0xbe, 0x43, 0x3d, 0xe9, 0xbd, 0xd3, 0x0e, 0x21, 0xbd, 0x43, 0xc5, 0xa3, 0xbd, 0x70, 0xa3, 0x3c, 0x3e, 0xa0, 0x58, 0x6e, 0xbd, 0x48, 0xf4, 0xa4, 0xbd, 0xd2, 0x9c, 0xcf, 0x3c, 0x37, 0x01, 0x64, 0x3d, 0xd2, 0x29, 0x94, 0x3c, 0xe0, 0x54, 0x85, 0x3d, 0x4b, 0x26, 0x09, 0x3c, 0x76, 0x97, 0x97, 0x3d, 0x63, 0x64, 0xc8, 0x3c, 0xd9, 0xcd, 0x52, 0x3e, 0x17, 0x1e, 0x6d, 0x3e, 0xbc, 0x99, 0x47, 0x3e, 0x6a, 0xfe, 0x2c, 0xbd, 0x94, 0x87, 0xf2, 0x3d, 0xed, 0x8e, 0x77, 0xbc, 0x1b, 0x29, 0x42, 0xbd, 0x75, 0x1f, 0x01, 0x3d, 0x3a, 0x8d, 0x2b, 0x3e, 0xdb, 0x1f, 0xd4, 0x3d, 0x87, 0x75, 0x40, 0xbd, 0xbf, 0xeb, 0x59, 0x3d, 0x9a, 0x85, 0x9b, 0x3d, 0x42, 0x3c, 0xcf, 0xbc, 0xd0, 0x40, 0xe1, 0x3c, 0x5c, 0x4e, 0x55, 0xbe, 0xb1, 0x2b, 0x5f, 0xbe, 0xf5, 0xc7, 0x96, 0xbd, 0x5b, 0xa3, 0x13, 0xbe, 0x60, 0x2e, 0x01, 0xbe, 0xef, 0xa6, 0x26, 0xbe, 0xb6, 0xf1, 0xc2, 0xbd, 0x33, 0xd3, 0x4f, 0x3e, 0x57, 0x9a, 0x36, 0x3e, 0x87, 0xc8, 0x2f, 0xbe, 0x30, 0xb1, 0xc3, 0xbc, 0xbf, 0xcb, 0xb4, 0xbd, 0xe6, 0x43, 0xd9, 0xbd, 0x13, 0x65, 0x0b, 0xbe, 0xb5, 0x4c, 0xa5, 0xbd, 0x4d, 0x10, 0x57, 0xbe, 0x4e, 0x37, 0xbf, 0xbd, 0x70, 0x07, 0x1f, 0x3e, 0x2d, 0xc3, 0x44, 0x3e, 0xca, 0x98, 0x42, 0xbe, 0xd8, 0xfd, 0x67, 0xbd, 0x15, 0xec, 0x0b, 0xbd, 0x0c, 0x08, 0xc9, 0x3d, 0x62, 0xaa, 0xf4, 0x3d, 0x11, 0x30, 0x08, 0xbd, 0x9c, 0xea, 0x3f, 0xbe, 0xaa, 0x22, 0x4c, 0x3d, 0x29, 0xbd, 0x59, 0xbe, 0x91, 0xcb, 0x09, 0xbe, 0x0d, 0x25, 0x18, 0xbe, 0x1a, 0xd0, 0x6e, 0x3e, 0x1c, 0xee, 0x45, 0xbe, 0xf3, 0x5b, 0x8a, 0xbc, 0xe3, 0x52, 0x4e, 0x3d, 0x30, 0x48, 0xe5, 0xbd, 0x20, 0x81, 0xca, 0xbd, 0xee, 0x78, 0x9a, 0x3d, 0x7e, 0x0f, 0x47, 0x3e, 0xb7, 0x29, 0xf5, 0x3d, 0x85, 0xc8, 0xf6, 0x3c, 0xbc, 0x0e, 0x1f, 0xbe, 0xcd, 0xfd, 0xd1, 0x3d, 0xe8, 0x50, 0x36, 0xbe, 0x5f, 0xa8, 0x03, 0x3c, 0x77, 0xcf, 0x05, 0xbe, 0x87, 0xfd, 0xc0, 0x3d, 0x03, 0x34, 0xb4, 0xbd, 0x8f, 0xdb, 0xd9, 0xbd, 0x90, 0xf3, 0xe9, 0xbb, 0xc6, 0xc6, 0x0b, 0x3e, 0x82, 0xb6, 0xd2, 0x3d, 0x04, 0x3c, 0x65, 0xbe, 0xf6, 0xd4, 0xb9, 0xba, 0xef, 0xad, 0xd6, 0x3d, 0xcc, 0xd0, 0x03, 0xbe, 0xdd, 0x9a, 0x20, 0xbe, 0x7c, 0x79, 0x79, 0xbe, 0xa6, 0xf5, 0x2f, 0x3e, 0xcd, 0xba, 0x1a, 0xbd, 0x1a, 0xb7, 0x21, 0xbd, 0x9f, 0xb1, 0xf1, 0x3d, 0x09, 0xa0, 0x80, 0x3e, 0xde, 0x7c, 0x07, 0x3e, 0x9d, 0x78, 0x14, 0x3c, 0xc7, 0xb8, 0xeb, 0x3d, 0xe8, 0xbe, 0xfb, 0xbd, 0xd6, 0xb2, 0xb8, 0xbd, 0xff, 0xf5, 0x68, 0x3e, 0x17, 0xc8, 0x7a, 0x3e, 0x88, 0x77, 0xdf, 0xbd, 0x91, 0x6f, 0xbf, 0xbd, 0x7d, 0x9b, 0x68, 0x3e, 0x60, 0x0e, 0x45, 0xbd, 0xbc, 0x93, 0x28, 0xbd, 0xb9, 0x95, 0x76, 0xbe, 0x1a, 0xdd, 0x63, 0x3e, 0x3f, 0x4c, 0xdd, 0x3d, 0x04, 0xb4, 0x4b, 0x3e, 0xc2, 0xf3, 0x82, 0x3e, 0x0c, 0x08, 0x5d, 0x3e, 0x9a, 0x16, 0x49, 0xbe, 0x1b, 0x72, 0x66, 0xbe, 0x18, 0x72, 0x44, 0x3e, 0xf9, 0xb8, 0x6d, 0x3e, 0xed, 0x5e, 0x3b, 0x3d, 0x40, 0xe0, 0x81, 0x3c, 0x1a, 0xfd, 0x22, 0xbe, 0x1b, 0x16, 0x67, 0xbe, 0x4c, 0x49, 0x5e, 0x3e, 0x37, 0x20, 0x62, 0x3e, 0x3e, 0xbb, 0xa0, 0x3d, 0x0a, 0x06, 0x83, 0x3c, 0x9b, 0x42, 0xc7, 0x3d, 0x00, 0x1f, 0xe4, 0x3c, 0xc1, 0x98, 0xe6, 0xbd, 0x6d, 0x14, 0x70, 0xbe, 0x7a, 0x9e, 0x74, 0xbe, 0x04, 0xfe, 0xc1, 0xbd, 0xaa, 0x5d, 0x1d, 0x3e, 0x08, 0x5f, 0x64, 0xbc, 0x48, 0xf5, 0x25, 0xbc, 0xf3, 0x9a, 0x1d, 0xbe, 0x34, 0x4e, 0x77, 0xbe, 0xc7, 0x94, 0x41, 0xbd, 0xd9, 0xa9, 0x64, 0x3d, 0x99, 0x8b, 0x5b, 0xbe, 0x8a, 0x74, 0x7f, 0x3e, 0x72, 0xf5, 0x36, 0x3d, 0x1e, 0x27, 0xea, 0x3d, 0xb9, 0x06, 0x46, 0xbe, 0xc6, 0x9d, 0xda, 0x3d, 0x0b, 0x05, 0xe0, 0xbd, 0xdc, 0xd5, 0x60, 0x3e, 0x98, 0xf7, 0x40, 0xbe, 0xc6, 0x4e, 0x55, 0x3e, 0xd9, 0xa4, 0x0b, 0x3e, 0x6b, 0x50, 0x81, 0x3e, 0x98, 0x9d, 0x58, 0xbe, 0xdd, 0x63, 0xe0, 0x3c, 0x7e, 0x17, 0x5d, 0x3e, 0x51, 0x8a, 0x17, 0xbe, 0xae, 0xd5, 0x76, 0x3e, 0x3f, 0xef, 0x40, 0xbe, 0x04, 0xb6, 0x62, 0xbe, 0x11, 0x41, 0x3a, 0x3e, 0x3f, 0x67, 0x13, 0xbe, 0xfd, 0x3b, 0x62, 0xbd, 0xfd, 0x7d, 0x78, 0xbe, 0x41, 0x75, 0x51, 0xbd, 0x5a, 0x1b, 0xc7, 0x3c, 0xe4, 0x31, 0x42, 0xbe, 0x7a, 0x30, 0x51, 0xbd, 0xba, 0x3b, 0x1a, 0xbe, 0x2b, 0xc4, 0x33, 0x3e, 0xc8, 0x43, 0x73, 0xbe, 0xee, 0x25, 0xc0, 0x3d, 0x28, 0xc3, 0x39, 0x3d, 0x5c, 0x4c, 0xab, 0x3d, 0x6f, 0xec, 0xa1, 0x3d, 0x81, 0x38, 0x6c, 0x3d, 0xea, 0xe1, 0xef, 0x3d, 0x0f, 0x42, 0xd6, 0x3c, 0x5c, 0x21, 0x46, 0xbe, 0x66, 0xce, 0xc6, 0x3b, 0xfa, 0x29, 0x38, 0x3e, 0x24, 0x9f, 0xf6, 0x3d, 0xfc, 0xb5, 0x81, 0x3e, 0xff, 0x66, 0xeb, 0x3c, 0x08, 0xb2, 0x71, 0x3e, 0x60, 0x33, 0xdc, 0xbd, 0x7a, 0xcb, 0x27, 0x3e, 0x15, 0xe8, 0x87, 0xbc, 0xae, 0xb6, 0x21, 0x3e, 0xea, 0xff, 0x46, 0x3d, 0xd5, 0x86, 0xe4, 0x3d, 0x4d, 0x9b, 0xa4, 0xbd, 0xf4, 0x82, 0xa6, 0x3d, 0xe3, 0x85, 0x78, 0x3e, 0x74, 0xcf, 0x00, 0x3e, 0xfd, 0x37, 0x12, 0xbe, 0x95, 0x94, 0xc3, 0x3a, 0x6e, 0x9f, 0x1e, 0x3e, 0x0c, 0xf3, 0x6c, 0xbe, 0x31, 0x74, 0x19, 0xbe, 0x3b, 0x4b, 0xb9, 0xbd, 0x3c, 0xe0, 0x6b, 0x3e, 0x65, 0x42, 0xfe, 0x3d, 0xdd, 0x5b, 0x45, 0x3e, 0xc6, 0x80, 0x9a, 0xbd, 0x0f, 0xfa, 0x51, 0x3e, 0x92, 0x0f, 0xd9, 0x3d, 0xe2, 0x07, 0x77, 0xbe, 0x7e, 0xe2, 0x70, 0xbe, 0x5d, 0xee, 0xcd, 0x3d, 0xd0, 0x1e, 0x2e, 0x3e, 0xe9, 0x6d, 0x15, 0x3e, 0xd0, 0x9b, 0x69, 0x3e, 0x86, 0x31, 0x22, 0x3e, 0x06, 0x1b, 0x7a, 0x3e, 0xb1, 0x38, 0x1b, 0x3e, 0xb6, 0x63, 0x08, 0xbe, 0x79, 0x25, 0x62, 0xbd, 0x1e, 0xf9, 0x1a, 0xbe, 0xa1, 0x83, 0xad, 0xbd, 0x89, 0x8e, 0x26, 0x3e, 0xeb, 0x35, 0xd6, 0xbd, 0xcf, 0x5a, 0xc2, 0xbd, 0x8d, 0xdc, 0x44, 0x3e, 0x92, 0xdd, 0x89, 0xbd, 0x64, 0xed, 0x2b, 0xbe, 0x86, 0x52, 0x61, 0x3d, 0x3d, 0xe8, 0x62, 0x3e, 0x79, 0x9b, 0xd5, 0x3d, 0x99, 0x5c, 0x06, 0xbd, 0xdb, 0xc0, 0xa2, 0xbd, 0x9f, 0xdb, 0x42, 0x3d, 0xf0, 0x18, 0x27, 0x3e, 0xe1, 0xab, 0x4a, 0x3e, 0x8b, 0x10, 0x82, 0x3e, 0xf2, 0xf2, 0x66, 0x3e, 0xb1, 0x36, 0x4f, 0xbd, 0xe3, 0xe5, 0xc3, 0x3b, 0x73, 0xd6, 0xc7, 0x3d, 0x28, 0xf4, 0x60, 0x3e, 0xdf, 0xa1, 0x7d, 0x3e, 0x96, 0x67, 0x1e, 0x3d, 0x0d, 0x50, 0x9c, 0x3d, 0xbf, 0xcc, 0x07, 0x3e, 0xf4, 0x6d, 0x65, 0xbe, 0x4b, 0x07, 0xf1, 0x3d, 0x6f, 0x73, 0x4c, 0xbe, 0x58, 0x24, 0x04, 0xbe, 0xc4, 0xf9, 0xb3, 0x3d, 0xa0, 0xad, 0x42, 0xbe, 0x49, 0x5f, 0x5a, 0x3e, 0x62, 0xff, 0x6c, 0xbe, 0x00, 0xfa, 0xd5, 0xbb, 0xcc, 0xe1, 0x2a, 0xbe, 0xa5, 0xe1, 0xc9, 0xbd, 0xed, 0x5e, 0x4a, 0xbc, 0x38, 0x60, 0xa5, 0x3d, 0x20, 0x59, 0x22, 0x3e, 0xf1, 0x1b, 0x0f, 0xbd, 0xe9, 0xf3, 0x20, 0x3e, 0x40, 0xb3, 0x2f, 0x3e, 0x8f, 0xe8, 0x5f, 0xbc, 0x39, 0x3a, 0x27, 0xbe, 0x22, 0x5d, 0xa0, 0xbc, 0xa3, 0x0e, 0xab, 0x3d, 0x01, 0xd9, 0x23, 0xbd, 0x13, 0xae, 0x39, 0xbe, 0xd4, 0x99, 0x2d, 0x3e, 0x87, 0x8b, 0xc4, 0xbd, 0x77, 0x81, 0xc2, 0xbd, 0x60, 0xcc, 0x14, 0x3e, 0x39, 0x25, 0x93, 0xbd, 0x26, 0x5c, 0x53, 0x39, 0x92, 0x74, 0x4d, 0x3e, 0x92, 0xe4, 0x23, 0x3e, 0xed, 0x13, 0xae, 0x3b, 0xb1, 0x51, 0x32, 0x3d, 0xa5, 0x7b, 0x06, 0xbd, 0xa5, 0xec, 0x2b, 0xbd, 0x46, 0x70, 0x92, 0x3d, 0x2d, 0x3c, 0x62, 0xbd, 0x1d, 0x7e, 0x48, 0xbe, 0x34, 0xc6, 0x17, 0xbe, 0x79, 0x9c, 0x7a, 0x3d, 0xaf, 0x97, 0xaa, 0x3d, 0x08, 0xb9, 0x52, 0xbe, 0x73, 0x66, 0x52, 0xbe, 0x5a, 0xee, 0x42, 0x3e, 0x4c, 0x65, 0x37, 0xbe, 0xf6, 0xc3, 0x2f, 0xbc, 0xf8, 0x50, 0x16, 0x3e, 0xe8, 0x8f, 0x65, 0xbe, 0x4c, 0xb6, 0xc8, 0x3d, 0xbc, 0xb2, 0x53, 0x3e, 0x3b, 0xa4, 0x9d, 0x3a, 0x7b, 0xe4, 0xa3, 0xbd, 0x2d, 0xb6, 0x25, 0xbc, 0x4c, 0x57, 0x1b, 0x3e, 0xfa, 0xae, 0xe5, 0x3d, 0xd4, 0x1e, 0x82, 0xbc, 0x65, 0x5e, 0xd2, 0x3d, 0x03, 0x2c, 0xa1, 0x3c, 0x41, 0x34, 0xe9, 0xbd, 0x47, 0x10, 0xb9, 0x3d, 0x0e, 0x42, 0x18, 0xbe, 0x63, 0xd4, 0x07, 0x3e, 0x78, 0xf7, 0x80, 0xbe, 0x79, 0x8b, 0x6d, 0x3e, 0xdc, 0x29, 0x27, 0x3e, 0x2b, 0x19, 0x4f, 0x3d, 0xc5, 0x50, 0x50, 0x3e, 0xba, 0x72, 0x76, 0xbe, 0x1d, 0xae, 0x69, 0x3e, 0xd6, 0x1d, 0x43, 0x3e, 0xe0, 0x7c, 0xdb, 0x3d, 0x7b, 0x9c, 0xfc, 0xbd, 0x3a, 0x8c, 0x46, 0x3e, 0xea, 0x87, 0x41, 0x3e, 0x4b, 0x08, 0x66, 0x3e, 0x49, 0x3b, 0xd2, 0x3d, 0x2e, 0x3e, 0xfe, 0x3d, 0x6a, 0x11, 0x6c, 0xbe, 0xa5, 0x70, 0x2a, 0x3c, 0x66, 0xf0, 0x71, 0xbe, 0xe4, 0x71, 0x05, 0xbe, 0xd7, 0x7f, 0x34, 0x3e, 0x61, 0x19, 0xe2, 0xbd, 0xeb, 0x79, 0x52, 0xbe, 0x01, 0x51, 0x22, 0x3e, 0x60, 0x2a, 0xd9, 0xbd, 0xab, 0xfd, 0xb0, 0xbd, 0x03, 0xb7, 0x37, 0xbc, 0xb0, 0xf7, 0xc4, 0xbd, 0xb6, 0x80, 0xec, 0xbd, 0x46, 0x38, 0xb1, 0xbd, 0x9d, 0xbe, 0x7c, 0xbd, 0xdb, 0x43, 0xd3, 0xbd, 0xfb, 0x98, 0xdf, 0xbc, 0xdc, 0x5a, 0x4d, 0xbe, 0x07, 0xa2, 0x60, 0x3e, 0xd0, 0x9a, 0x5a, 0x3e, 0x79, 0xfa, 0x29, 0xbe, 0x96, 0xfd, 0xd7, 0x3d, 0x4c, 0xe4, 0x2b, 0xbe, 0x19, 0x68, 0x4b, 0x3c, 0xc8, 0xa9, 0x60, 0x3d, 0x8b, 0x0c, 0xd9, 0x3d, 0xdc, 0x01, 0x43, 0x3d, 0x8e, 0x1d, 0x53, 0xbe, 0x3e, 0xd6, 0x0a, 0xbe, 0xeb, 0x8c, 0x97, 0xbd, 0x3c, 0xff, 0x3e, 0x3e, 0x90, 0xb9, 0x29, 0x3e, 0x34, 0x6b, 0x4c, 0x3e, 0x32, 0x70, 0x54, 0x3d, 0x7f, 0x4f, 0xa6, 0xbd, 0xa7, 0x78, 0x02, 0xbd, 0x42, 0x6a, 0x48, 0x3e, 0x65, 0xef, 0x63, 0x3e, 0xd5, 0x91, 0xb6, 0x3d, 0x97, 0x63, 0x67, 0x3d, 0xf6, 0xd8, 0x9d, 0xbd, 0x4c, 0xc8, 0x27, 0xbe, 0x4c, 0xb9, 0x42, 0x3e, 0xad, 0x40, 0x5b, 0x3e, 0xab, 0xa5, 0x99, 0xbd, 0x34, 0x41, 0x33, 0x3e, 0x34, 0x49, 0x90, 0xbd, 0xd4, 0x68, 0x6b, 0xbe, 0x3c, 0x17, 0xe0, 0x3c, 0xf5, 0xd3, 0xa5, 0xbd, 0x57, 0xc1, 0x3a, 0xbd, 0x20, 0x69, 0x90, 0xbb, 0xa0, 0x75, 0xc5, 0x3d, 0xe8, 0x01, 0x03, 0x3e, 0x7f, 0xee, 0x0b, 0x3e, 0x87, 0xfe, 0x60, 0x3e, 0x3e, 0xbc, 0xc5, 0xbd, 0xbf, 0xc7, 0x91, 0x3b, 0x43, 0x80, 0x82, 0x3e, 0x72, 0x53, 0xc0, 0x3c, 0x56, 0x83, 0x4d, 0xbe, 0x9e, 0xee, 0x04, 0xbe, 0x69, 0xc4, 0x51, 0xbe, 0xf2, 0x2a, 0x31, 0x3e, 0xcd, 0x9f, 0x4b, 0x3e, 0x9f, 0x28, 0x9d, 0x3d, 0xaa, 0x6d, 0x53, 0x3e, 0xf8, 0x71, 0x9f, 0x3d, 0x66, 0x41, 0x01, 0x3c, 0x40, 0xdf, 0x1d, 0xbe, 0x0d, 0x2b, 0x26, 0xbe, 0x95, 0xf4, 0x2a, 0xbe, 0x90, 0xf4, 0x2f, 0x3e, 0x93, 0x9b, 0x0b, 0x3e, 0x27, 0x8e, 0xa7, 0x3d, 0xb3, 0x37, 0x79, 0xbc, 0x24, 0x5d, 0xdc, 0x3d, 0xb2, 0x39, 0x35, 0x3e, 0x69, 0xc8, 0xa0, 0x3d, 0x71, 0xda, 0x4d, 0x3e, 0x0c, 0xf1, 0xda, 0x3d, 0xcf, 0xef, 0xfc, 0x3d, 0x69, 0x63, 0x16, 0x3d, 0xad, 0x75, 0x85, 0xbd, 0x8f, 0x9d, 0xfa, 0x3d, 0x0d, 0x1a, 0xc5, 0xbd, 0x19, 0xab, 0x1b, 0x3e, 0x93, 0x6b, 0x2d, 0x3e, 0xa0, 0x91, 0x19, 0xbd, 0x2f, 0x56, 0xf3, 0xbd, 0x4c, 0xb2, 0x65, 0xbe, 0x37, 0x8c, 0x13, 0xbe, 0x53, 0x65, 0x22, 0x3e, 0x49, 0x8a, 0x47, 0x3e, 0xa2, 0x22, 0x18, 0x3e, 0x4a, 0x2c, 0x1d, 0xbe, 0x4b, 0x3d, 0xd8, 0x3d, 0x97, 0x83, 0x03, 0x3e, 0xbd, 0x87, 0x02, 0x3e, 0x3e, 0x75, 0x1d, 0xbd, 0x3c, 0x8a, 0xf4, 0x3d, 0x32, 0x44, 0x2f, 0x3e, 0x4f, 0x10, 0x9f, 0x3d, 0x3f, 0x80, 0x05, 0xbd, 0x8a, 0x4f, 0xfe, 0x3d, 0xe0, 0xb6, 0x2c, 0xbe, 0x0c, 0x2f, 0x00, 0xbd, 0x28, 0x7c, 0x0f, 0xbe, 0xfb, 0x12, 0x24, 0x3e, 0xa8, 0x82, 0xed, 0x3c, 0x03, 0xb3, 0x39, 0xbe, 0x1d, 0x81, 0x1a, 0xbd, 0xc8, 0xf8, 0x59, 0xbe, 0xf7, 0xa0, 0x9a, 0x3d, 0xb5, 0x4f, 0x02, 0xbe, 0xce, 0x37, 0x99, 0x3d, 0xc1, 0xc1, 0x5b, 0xbe, 0x0d, 0x87, 0x33, 0xbe, 0x70, 0x78, 0x1a, 0x3d, 0x7a, 0x69, 0x7f, 0x3e, 0xae, 0x45, 0x03, 0x3e, 0xd9, 0xa2, 0x66, 0x3e, 0xa3, 0xc5, 0x5d, 0xbe, 0xf4, 0x42, 0x30, 0xbe, 0xf0, 0x55, 0x1b, 0x3e, 0x87, 0x25, 0x07, 0x3e, 0x6f, 0xfd, 0x05, 0xbd, 0xac, 0xc7, 0x82, 0xbc, 0xcc, 0xe3, 0x4f, 0xbe, 0x79, 0xb1, 0xad, 0xbd, 0xc1, 0x66, 0x30, 0xbd, 0x5f, 0xfa, 0x3a, 0x3e, 0xd9, 0x99, 0x0a, 0xbd, 0x77, 0xb9, 0x64, 0xbe, 0x80, 0x50, 0xe4, 0x3b, 0x0b, 0xb6, 0x9f, 0x3d, 0x22, 0xe6, 0x0f, 0xbe, 0x5b, 0x32, 0x34, 0xbe, 0x0b, 0x5e, 0xab, 0xbc, 0xac, 0xf4, 0xc6, 0xbd, 0x88, 0xd0, 0x73, 0xbe, 0x10, 0x23, 0x36, 0x3e, 0x2c, 0x99, 0x03, 0xbe, 0xec, 0x6b, 0x36, 0xbe, 0x16, 0x10, 0x5f, 0x3d, 0x7c, 0xe9, 0x3e, 0x3e, 0x6b, 0x42, 0x8e, 0xbd, 0x68, 0x06, 0x1d, 0xbe, 0xf7, 0x60, 0x04, 0x3e, 0x24, 0xa4, 0x77, 0xbe, 0x34, 0xe8, 0x20, 0x3e, 0xed, 0x9e, 0x0f, 0xbe, 0xa6, 0xa8, 0xe1, 0x3c, 0x96, 0x7e, 0x5f, 0x3e, 0x51, 0xce, 0xc7, 0xbd, 0xc2, 0xaf, 0xd5, 0xbd, 0x8c, 0xfb, 0x1b, 0x3d, 0xe9, 0x51, 0x93, 0xbd, 0x18, 0xe2, 0x0a, 0xbe, 0x7f, 0x70, 0x2d, 0xbe, 0xcb, 0x18, 0x1f, 0xbe, 0x2c, 0x34, 0x3d, 0x3e, 0x00, 0x45, 0xd9, 0x3d, 0x96, 0xe9, 0x49, 0xbe, 0xd4, 0x4c, 0x93, 0xbd, 0x2e, 0x8f, 0x45, 0xbe, 0x74, 0x25, 0x4d, 0x3b, 0x78, 0xce, 0x33, 0x3e, 0x45, 0xfe, 0xcb, 0x3c, 0xf7, 0x30, 0xae, 0x3d, 0x11, 0x9b, 0xb0, 0x3d, 0x77, 0xc7, 0x0d, 0x3e, 0x92, 0x28, 0x0b, 0x3e, 0x3f, 0xa6, 0xc6, 0xbd, 0xe9, 0x73, 0xfb, 0x3c, 0xfb, 0x76, 0x82, 0xbd, 0x57, 0xd4, 0x6c, 0xbe, 0x85, 0xa1, 0x2c, 0x3d, 0xdf, 0x5d, 0x70, 0x3e, 0x4c, 0x18, 0x40, 0x3c, 0x17, 0x2a, 0xf9, 0xbc, 0x5d, 0x91, 0x2f, 0x3b, 0x82, 0x32, 0x22, 0x3e, 0x54, 0x1c, 0x67, 0x3e, 0x14, 0x42, 0x5d, 0x3e, 0x26, 0xc0, 0x2e, 0x3e, 0x01, 0x99, 0x89, 0x3d, 0xf7, 0x1e, 0xef, 0x3c, 0x92, 0x73, 0x3e, 0xbe, 0xde, 0xbf, 0xa7, 0x3d, 0xe1, 0xd0, 0x72, 0xbe, 0x46, 0x30, 0x30, 0x3e, 0xfb, 0x41, 0xa3, 0xbd, 0x4e, 0x17, 0x34, 0x3e, 0xab, 0x9a, 0x24, 0xbe, 0xad, 0xb3, 0x1c, 0xbe, 0x04, 0xf7, 0x48, 0x3b, 0x98, 0x49, 0xdb, 0x3c, 0xed, 0x4b, 0x5b, 0xbe, 0x00, 0xc4, 0x22, 0x3e, 0xef, 0xbf, 0x98, 0xbd, 0xc8, 0x48, 0x38, 0xbe, 0xb2, 0xe1, 0x6d, 0x3e, 0x56, 0xde, 0x90, 0xbd, 0x00, 0x33, 0x88, 0x3d, 0x5f, 0x1b, 0x90, 0xbd, 0x81, 0x61, 0x62, 0xbd, 0xf9, 0x79, 0x63, 0x3e, 0x13, 0x4f, 0x52, 0x3d, 0xc2, 0xa3, 0x3b, 0x3e, 0xfd, 0x00, 0x68, 0xbe, 0x47, 0x69, 0x97, 0xbc, 0x66, 0x17, 0x90, 0xbc, 0xde, 0xab, 0x37, 0x3e, 0x1f, 0x3e, 0xd6, 0x3c, 0x6a, 0x70, 0xcb, 0xbd, 0x15, 0x35, 0x78, 0x3e, 0xb4, 0x3e, 0x24, 0xbe, 0xc4, 0x35, 0x2e, 0x3d, 0x8f, 0xb0, 0x58, 0xbe, 0xcd, 0x96, 0x92, 0x3d, 0xe8, 0x39, 0x3e, 0xbd, 0x12, 0x49, 0x1d, 0xbd, 0x63, 0xce, 0x3b, 0x3e, 0x57, 0xc5, 0x53, 0xbe, 0x9b, 0xaf, 0x0d, 0xbe, 0xdc, 0x45, 0x48, 0x3e, 0x0a, 0x6a, 0x06, 0x3c, 0x89, 0x48, 0xc6, 0x3d, 0x40, 0x99, 0x00, 0xbe, 0xe2, 0x4e, 0xb6, 0xbb, 0x9b, 0x95, 0x43, 0xbe, 0x2b, 0xde, 0x4e, 0xbe, 0xfa, 0x29, 0x60, 0xbc, 0x71, 0x20, 0x31, 0xbe, 0xaa, 0xae, 0xa6, 0x3d, 0x8c, 0x07, 0x0d, 0x3e, 0x4d, 0x7f, 0x0f, 0x3e, 0x76, 0xe8, 0x74, 0xbe, 0xfc, 0x86, 0x1e, 0xbe, 0x85, 0xdf, 0xfe, 0x3d, 0x30, 0x24, 0x10, 0xbe, 0xf9, 0x98, 0x6b, 0xbe, 0x22, 0x05, 0x63, 0xbe, 0x00, 0x00, 0x06, 0x00, 0x08, 0x00, 0x04, 0x00, 0x06, 0x00, 0x00, 0x00, 0x04, 0x00, 0x00, 0x00, 0x80, 0x00, 0x00, 0x00, 0xb7, 0x50, 0x45, 0x3f, 0xd6, 0x12, 0xc0, 0xbe, 0xea, 0x93, 0x4a, 0xbc, 0x1d, 0x1c, 0x29, 0x3f, 0xe7, 0xd5, 0xfa, 0x3e, 0x50, 0xec, 0xf9, 0x3d, 0xa6, 0x29, 0xe6, 0x3a, 0xe5, 0x9b, 0x9c, 0xbe, 0xdd, 0x8e, 0x95, 0xbe, 0x9c, 0x26, 0xa2, 0xbd, 0x91, 0x4a, 0xbf, 0xbe, 0x08, 0x21, 0x19, 0x3f, 0xb7, 0xf0, 0x69, 0xbd, 0x5d, 0x20, 0x86, 0xbe, 0x2c, 0xb7, 0x24, 0x3f, 0x46, 0xf9, 0x69, 0xbe, 0x7e, 0x34, 0xc6, 0x3e, 0x2d, 0x8b, 0x8f, 0xbe, 0x89, 0xef, 0x65, 0xbe, 0x25, 0x8d, 0xed, 0xbd, 0x6b, 0xd7, 0x0a, 0x3f, 0x37, 0xc0, 0x17, 0x3f, 0x44, 0xe3, 0xd1, 0x3e, 0xfa, 0x89, 0xfa, 0x3e, 0x5c, 0xac, 0x37, 0x3f, 0x27, 0x19, 0x1d, 0x3f, 0x14, 0x00, 0x33, 0x3f, 0x49, 0xd5, 0xca, 0xbe, 0xce, 0x49, 0x91, 0xbe, 0x7d, 0x90, 0x2a, 0x3f, 0x51, 0x47, 0x1c, 0x3f, 0xdb, 0x74, 0x12, 0x3f, 0x94, 0xfa, 0xff, 0xff, 0x98, 0xfa, 0xff, 0xff, 0x0f, 0x00, 0x00, 0x00, 0x4d, 0x4c, 0x49, 0x52, 0x20, 0x43, 0x6f, 0x6e, 0x76, 0x65, 0x72, 0x74, 0x65, 0x64, 0x2e, 0x00, 0x01, 0x00, 0x00, 0x00, 0x14, 0x00, 0x00, 0x00, 0x00, 0x00, 0x0e, 0x00, 0x18, 0x00, 0x14, 0x00, 0x10, 0x00, 0x0c, 0x00, 0x08, 0x00, 0x04, 0x00, 0x0e, 0x00, 0x00, 0x00, 0x14, 0x00, 0x00, 0x00, 0x1c, 0x00, 0x00, 0x00, 0x08, 0x01, 0x00, 0x00, 0x0c, 0x01, 0x00, 0x00, 0x10, 0x01, 0x00, 0x00, 0x04, 0x00, 0x00, 0x00, 0x6d, 0x61, 0x69, 0x6e, 0x00, 0x00, 0x00, 0x00, 0x04, 0x00, 0x00, 0x00, 0xb0, 0x00, 0x00, 0x00, 0x68, 0x00, 0x00, 0x00, 0x34, 0x00, 0x00, 0x00, 0x10, 0x00, 0x00, 0x00, 0x00, 0x00, 0x0a, 0x00, 0x10, 0x00, 0x0c, 0x00, 0x08, 0x00, 0x04, 0x00, 0x0a, 0x00, 0x00, 0x00, 0x0c, 0x00, 0x00, 0x00, 0x10, 0x00, 0x00, 0x00, 0x01, 0x00, 0x00, 0x00, 0x01, 0x00, 0x00, 0x00, 0x0a, 0x00, 0x00, 0x00, 0x01, 0x00, 0x00, 0x00, 0x09, 0x00, 0x00, 0x00, 0x9a, 0xff, 0xff, 0xff, 0x10, 0x00, 0x00, 0x00, 0x00, 0x00, 0x00, 0x08, 0x0c, 0x00, 0x00, 0x00, 0x10, 0x00, 0x00, 0x00, 0x40, 0xfb, 0xff, 0xff, 0x01, 0x00, 0x00, 0x00, 0x09, 0x00, 0x00, 0x00, 0x03, 0x00, 0x00, 0x00, 0x08, 0x00, 0x00, 0x00, 0x01, 0x00, 0x00, 0x00, 0x03, 0x00, 0x00, 0x00, 0xca, 0xff, 0xff, 0xff, 0x10, 0x00, 0x00, 0x00, 0x00, 0x00, 0x00, 0x08, 0x10, 0x00, 0x00, 0x00, 0x14, 0x00, 0x00, 0x00, 0xba, 0xff, 0xff, 0xff, 0x00, 0x00, 0x00, 0x01, 0x01, 0x00, 0x00, 0x00, 0x08, 0x00, 0x00, 0x00, 0x03, 0x00, 0x00, 0x00, 0x07, 0x00, 0x00, 0x00, 0x02, 0x00, 0x00, 0x00, 0x04, 0x00, 0x00, 0x00, 0x00, 0x00, 0x0e, 0x00, 0x16, 0x00, 0x00, 0x00, 0x10, 0x00, 0x0c, 0x00, 0x0b, 0x00, 0x04, 0x00, 0x0e, 0x00, 0x00, 0x00, 0x18, 0x00, 0x00, 0x00, 0x00, 0x00, 0x00, 0x08, 0x18, 0x00, 0x00, 0x00, 0x1c, 0x00, 0x00, 0x00, 0x00, 0x00, 0x06, 0x00, 0x08, 0x00, 0x07, 0x00, 0x06, 0x00, 0x00, 0x00, 0x00, 0x00, 0x00, 0x01, 0x01, 0x00, 0x00, 0x00, 0x07, 0x00, 0x00, 0x00, 0x03, 0x00, 0x00, 0x00, 0x00, 0x00, 0x00, 0x00, 0x06, 0x00, 0x00, 0x00, 0x05, 0x00, 0x00, 0x00, 0x01, 0x00, 0x00, 0x00, 0x0a, 0x00, 0x00, 0x00, 0x01, 0x00, 0x00, 0x00, 0x00, 0x00, 0x00, 0x00, 0x0b, 0x00, 0x00, 0x00, 0xe8, 0x03, 0x00, 0x00, 0x90, 0x03, 0x00, 0x00, 0x38, 0x03, 0x00, 0x00, 0xfc, 0x02, 0x00, 0x00, 0xa4, 0x02, 0x00, 0x00, 0x50, 0x02, 0x00, 0x00, 0x04, 0x02, 0x00, 0x00, 0x74, 0x01, 0x00, 0x00, 0xdc, 0x00, 0x00, 0x00, 0x60, 0x00, 0x00, 0x00, 0x04, 0x00, 0x00, 0x00, 0x5a, 0xfc, 0xff, 0xff, 0x00, 0x00, 0x00, 0x01, 0x14, 0x00, 0x00, 0x00, 0x1c, 0x00, 0x00, 0x00, 0x1c, 0x00, 0x00, 0x00, 0x0b, 0x00, 0x00, 0x00, 0x34, 0x00, 0x00, 0x00, 0x02, 0x00, 0x00, 0x00, 0xff, 0xff, 0xff, 0xff, 0x01, 0x00, 0x00, 0x00, 0x44, 0xfc, 0xff, 0xff, 0x1b, 0x00, 0x00, 0x00, 0x53, 0x74, 0x61, 0x74, 0x65, 0x66, 0x75, 0x6c, 0x50, 0x61, 0x72, 0x74, 0x69, 0x74, 0x69, 0x6f, 0x6e, 0x65, 0x64, 0x43, 0x61, 0x6c, 0x6c, 0x5f, 0x31, 0x3a, 0x30, 0x00, 0x02, 0x00, 0x00, 0x00, 0x01, 0x00, 0x00, 0x00, 0x01, 0x00, 0x00, 0x00, 0xb2, 0xfc, 0xff, 0xff, 0x00, 0x00, 0x00, 0x01, 0x14, 0x00, 0x00, 0x00, 0x1c, 0x00, 0x00, 0x00, 0x1c, 0x00, 0x00, 0x00, 0x0a, 0x00, 0x00, 0x00, 0x54, 0x00, 0x00, 0x00, 0x02, 0x00, 0x00, 0x00, 0xff, 0xff, 0xff, 0xff, 0x01, 0x00, 0x00, 0x00, 0x9c, 0xfc, 0xff, 0xff, 0x38, 0x00, 0x00, 0x00, 0x73, 0x65, 0x71, 0x75, 0x65, 0x6e, 0x74, 0x69, 0x61, 0x6c, 0x5f, 0x31, 0x2f, 0x64, 0x65, 0x6e, 0x73, 0x65, 0x5f, 0x32, 0x5f, 0x31, 0x2f, 0x4d, 0x61, 0x74, 0x4d, 0x75, 0x6c, 0x3b, 0x73, 0x65, 0x71, 0x75, 0x65, 0x6e, 0x74, 0x69, 0x61, 0x6c, 0x5f, 0x31, 0x2f, 0x64, 0x65, 0x6e, 0x73, 0x65, 0x5f, 0x32, 0x5f, 0x31, 0x2f, 0x41, 0x64, 0x64, 0x00, 0x00, 0x00, 0x00, 0x02, 0x00, 0x00, 0x00, 0x01, 0x00, 0x00, 0x00, 0x01, 0x00, 0x00, 0x00, 0x2a, 0xfd, 0xff, 0xff, 0x00, 0x00, 0x00, 0x01, 0x14, 0x00, 0x00, 0x00, 0x1c, 0x00, 0x00, 0x00, 0x1c, 0x00, 0x00, 0x00, 0x09, 0x00, 0x00, 0x00, 0x70, 0x00, 0x00, 0x00, 0x02, 0x00, 0x00, 0x00, 0xff, 0xff, 0xff, 0xff, 0x20, 0x00, 0x00, 0x00, 0x14, 0xfd, 0xff, 0xff, 0x54, 0x00, 0x00, 0x00, 0x73, 0x65, 0x71, 0x75, 0x65, 0x6e, 0x74, 0x69, 0x61, 0x6c, 0x5f, 0x31, 0x2f, 0x64, 0x65, 0x6e, 0x73, 0x65, 0x5f, 0x31, 0x5f, 0x32, 0x2f, 0x4d, 0x61, 0x74, 0x4d, 0x75, 0x6c, 0x3b, 0x73, 0x65, 0x71, 0x75, 0x65, 0x6e, 0x74, 0x69, 0x61, 0x6c, 0x5f, 0x31, 0x2f, 0x64, 0x65, 0x6e, 0x73, 0x65, 0x5f, 0x31, 0x5f, 0x32, 0x2f, 0x52, 0x65, 0x6c, 0x75, 0x3b, 0x73, 0x65, 0x71, 0x75, 0x65, 0x6e, 0x74, 0x69, 0x61, 0x6c, 0x5f, 0x31, 0x2f, 0x64, 0x65, 0x6e, 0x73, 0x65, 0x5f, 0x31, 0x5f, 0x32, 0x2f, 0x41, 0x64, 0x64, 0x00, 0x00, 0x00, 0x00, 0x02, 0x00, 0x00, 0x00, 0x01, 0x00, 0x00, 0x00, 0x20, 0x00, 0x00, 0x00, 0xbe, 0xfd, 0xff, 0xff, 0x00, 0x00, 0x00, 0x01, 0x14, 0x00, 0x00, 0x00, 0x1c, 0x00, 0x00, 0x00, 0x1c, 0x00, 0x00, 0x00, 0x08, 0x00, 0x00, 0x00, 0x68, 0x00, 0x00, 0x00, 0x02, 0x00, 0x00, 0x00, 0xff, 0xff, 0xff, 0xff, 0x40, 0x00, 0x00, 0x00, 0xa8, 0xfd, 0xff, 0xff, 0x4e, 0x00, 0x00, 0x00, 0x73, 0x65, 0x71, 0x75, 0x65, 0x6e, 0x74, 0x69, 0x61, 0x6c, 0x5f, 0x31, 0x2f, 0x64, 0x65, 0x6e, 0x73, 0x65, 0x5f, 0x31, 0x2f, 0x4d, 0x61, 0x74, 0x4d, 0x75, 0x6c, 0x3b, 0x73, 0x65, 0x71, 0x75, 0x65, 0x6e, 0x74, 0x69, 0x61, 0x6c, 0x5f, 0x31, 0x2f, 0x64, 0x65, 0x6e, 0x73, 0x65, 0x5f, 0x31, 0x2f, 0x52, 0x65, 0x6c, 0x75, 0x3b, 0x73, 0x65, 0x71, 0x75, 0x65, 0x6e, 0x74, 0x69, 0x61, 0x6c, 0x5f, 0x31, 0x2f, 0x64, 0x65, 0x6e, 0x73, 0x65, 0x5f, 0x31, 0x2f, 0x41, 0x64, 0x64, 0x00, 0x00, 0x02, 0x00, 0x00, 0x00, 0x01, 0x00, 0x00, 0x00, 0x40, 0x00, 0x00, 0x00, 0x9e, 0xfe, 0xff, 0xff, 0x00, 0x00, 0x00, 0x01, 0x10, 0x00, 0x00, 0x00, 0x10, 0x00, 0x00, 0x00, 0x07, 0x00, 0x00, 0x00, 0x28, 0x00, 0x00, 0x00, 0x24, 0xfe, 0xff, 0xff, 0x1b, 0x00, 0x00, 0x00, 0x73, 0x65, 0x71, 0x75, 0x65, 0x6e, 0x74, 0x69, 0x61, 0x6c, 0x5f, 0x31, 0x2f, 0x64, 0x65, 0x6e, 0x73, 0x65, 0x5f, 0x31, 0x2f, 0x4d, 0x61, 0x74, 0x4d, 0x75, 0x6c, 0x00, 0x02, 0x00, 0x00, 0x00, 0x40, 0x00, 0x00, 0x00, 0x04, 0x00, 0x00, 0x00, 0xe6, 0xfe, 0xff, 0xff, 0x00, 0x00, 0x00, 0x01, 0x10, 0x00, 0x00, 0x00, 0x10, 0x00, 0x00, 0x00, 0x06, 0x00, 0x00, 0x00, 0x34, 0x00, 0x00, 0x00, 0x6c, 0xfe, 0xff, 0xff, 0x27, 0x00, 0x00, 0x00, 0x73, 0x65, 0x71, 0x75, 0x65, 0x6e, 0x74, 0x69, 0x61, 0x6c, 0x5f, 0x31, 0x2f, 0x64, 0x65, 0x6e, 0x73, 0x65, 0x5f, 0x31, 0x2f, 0x41, 0x64, 0x64, 0x2f, 0x52, 0x65, 0x61, 0x64, 0x56, 0x61, 0x72, 0x69, 0x61, 0x62, 0x6c, 0x65, 0x4f, 0x70, 0x00, 0x01, 0x00, 0x00, 0x00, 0x40, 0x00, 0x00, 0x00, 0x36, 0xff, 0xff, 0xff, 0x00, 0x00, 0x00, 0x01, 0x10, 0x00, 0x00, 0x00, 0x10, 0x00, 0x00, 0x00, 0x05, 0x00, 0x00, 0x00, 0x38, 0x00, 0x00, 0x00, 0xbc, 0xfe, 0xff, 0xff, 0x29, 0x00, 0x00, 0x00, 0x73, 0x65, 0x71, 0x75, 0x65, 0x6e, 0x74, 0x69, 0x61, 0x6c, 0x5f, 0x31, 0x2f, 0x64, 0x65, 0x6e, 0x73, 0x65, 0x5f, 0x31, 0x5f, 0x32, 0x2f, 0x41, 0x64, 0x64, 0x2f, 0x52, 0x65, 0x61, 0x64, 0x56, 0x61, 0x72, 0x69, 0x61, 0x62, 0x6c, 0x65, 0x4f, 0x70, 0x00, 0x00, 0x00, 0x01, 0x00, 0x00, 0x00, 0x20, 0x00, 0x00, 0x00, 0x8a, 0xff, 0xff, 0xff, 0x00, 0x00, 0x00, 0x01, 0x10, 0x00, 0x00, 0x00, 0x10, 0x00, 0x00, 0x00, 0x04, 0x00, 0x00, 0x00, 0x1c, 0x00, 0x00, 0x00, 0x10, 0xff, 0xff, 0xff, 0x0f, 0x00, 0x00, 0x00, 0x61, 0x72, 0x69, 0x74, 0x68, 0x2e, 0x63, 0x6f, 0x6e, 0x73, 0x74, 0x61, 0x6e, 0x74, 0x32, 0x00, 0x01, 0x00, 0x00, 0x00, 0x01, 0x00, 0x00, 0x00, 0xc2, 0xff, 0xff, 0xff, 0x00, 0x00, 0x00, 0x01, 0x10, 0x00, 0x00, 0x00, 0x10, 0x00, 0x00, 0x00, 0x03, 0x00, 0x00, 0x00, 0x1c, 0x00, 0x00, 0x00, 0x48, 0xff, 0xff, 0xff, 0x0f, 0x00, 0x00, 0x00, 0x61, 0x72, 0x69, 0x74, 0x68, 0x2e, 0x63, 0x6f, 0x6e, 0x73, 0x74, 0x61, 0x6e, 0x74, 0x31, 0x00, 0x02, 0x00, 0x00, 0x00, 0x20, 0x00, 0x00, 0x00, 0x40, 0x00, 0x00, 0x00, 0x00, 0x00, 0x16, 0x00, 0x18, 0x00, 0x14, 0x00, 0x00, 0x00, 0x10, 0x00, 0x0c, 0x00, 0x08, 0x00, 0x00, 0x00, 0x00, 0x00, 0x00, 0x00, 0x07, 0x00, 0x16, 0x00, 0x00, 0x00, 0x00, 0x00, 0x00, 0x01, 0x10, 0x00, 0x00, 0x00, 0x10, 0x00, 0x00, 0x00, 0x02, 0x00, 0x00, 0x00, 0x1c, 0x00, 0x00, 0x00, 0x9c, 0xff, 0xff, 0xff, 0x0e, 0x00, 0x00, 0x00, 0x61, 0x72, 0x69, 0x74, 0x68, 0x2e, 0x63, 0x6f, 0x6e, 0x73, 0x74, 0x61, 0x6e, 0x74, 0x00, 0x00, 0x02, 0x00, 0x00, 0x00, 0x01, 0x00, 0x00, 0x00, 0x20, 0x00, 0x00, 0x00, 0x00, 0x00, 0x16, 0x00, 0x1c, 0x00, 0x18, 0x00, 0x00, 0x00, 0x14, 0x00, 0x10, 0x00, 0x0c, 0x00, 0x00, 0x00, 0x00, 0x00, 0x08, 0x00, 0x07, 0x00, 0x16, 0x00, 0x00, 0x00, 0x00, 0x00, 0x00, 0x01, 0x14, 0x00, 0x00, 0x00, 0x20, 0x00, 0x00, 0x00, 0x20, 0x00, 0x00, 0x00, 0x01, 0x00, 0x00, 0x00, 0x3c, 0x00, 0x00, 0x00, 0x02, 0x00, 0x00, 0x00, 0xff, 0xff, 0xff, 0xff, 0x04, 0x00, 0x00, 0x00, 0x04, 0x00, 0x04, 0x00, 0x04, 0x00, 0x00, 0x00, 0x1d, 0x00, 0x00, 0x00, 0x73, 0x65, 0x72, 0x76, 0x69, 0x6e, 0x67, 0x5f, 0x64, 0x65, 0x66, 0x61, 0x75, 0x6c, 0x74, 0x5f, 0x69, 0x6e, 0x70, 0x75, 0x74, 0x5f, 0x6c, 0x61, 0x79, 0x65, 0x72, 0x3a, 0x30, 0x00, 0x00, 0x00, 0x02, 0x00, 0x00, 0x00, 0x01, 0x00, 0x00, 0x00, 0x04, 0x00, 0x00, 0x00, 0x02, 0x00, 0x00, 0x00, 0x20, 0x00, 0x00, 0x00, 0x04, 0x00, 0x00, 0x00, 0xf4, 0xff, 0xff, 0xff, 0x0e, 0x00, 0x00, 0x00, 0x00, 0x00, 0x00, 0x0e, 0x0c, 0x00, 0x0c, 0x00, 0x0b, 0x00, 0x00, 0x00, 0x00, 0x00, 0x04, 0x00, 0x0c, 0x00, 0x00, 0x00, 0x09, 0x00, 0x00, 0x00, 0x00, 0x00, 0x00, 0x09};
unsigned int g_model_len = 11780;
